node {
  name: "global_step/Initializer/zeros"
  op: "Const"
  attr {
    key: "_class"
    value {
      list {
        s: "loc:@global_step"
      }
    }
  }
  attr {
    key: "_output_shapes"
    value {
      list {
        shape {
        }
      }
    }
  }
  attr {
    key: "dtype"
    value {
      type: DT_INT64
    }
  }
  attr {
    key: "value"
    value {
      tensor {
        dtype: DT_INT64
        tensor_shape {
        }
        int64_val: 0
      }
    }
  }
}
node {
  name: "global_step"
  op: "VariableV2"
  attr {
    key: "_class"
    value {
      list {
        s: "loc:@global_step"
      }
    }
  }
  attr {
    key: "_output_shapes"
    value {
      list {
        shape {
        }
      }
    }
  }
  attr {
    key: "container"
    value {
      s: ""
    }
  }
  attr {
    key: "dtype"
    value {
      type: DT_INT64
    }
  }
  attr {
    key: "shape"
    value {
      shape {
      }
    }
  }
  attr {
    key: "shared_name"
    value {
      s: ""
    }
  }
}
node {
  name: "global_step/Assign"
  op: "Assign"
  input: "global_step"
  input: "global_step/Initializer/zeros"
  attr {
    key: "T"
    value {
      type: DT_INT64
    }
  }
  attr {
    key: "_class"
    value {
      list {
        s: "loc:@global_step"
      }
    }
  }
  attr {
    key: "_output_shapes"
    value {
      list {
        shape {
        }
      }
    }
  }
  attr {
    key: "use_locking"
    value {
      b: true
    }
  }
  attr {
    key: "validate_shape"
    value {
      b: true
    }
  }
}
node {
  name: "global_step/read"
  op: "Identity"
  input: "global_step"
  attr {
    key: "T"
    value {
      type: DT_INT64
    }
  }
  attr {
    key: "_class"
    value {
      list {
        s: "loc:@global_step"
      }
    }
  }
  attr {
    key: "_output_shapes"
    value {
      list {
        shape {
        }
      }
    }
  }
}
node {
  name: "global_step/IsVariableInitialized"
  op: "IsVariableInitialized"
  input: "global_step"
  attr {
    key: "_class"
    value {
      list {
        s: "loc:@global_step"
      }
    }
  }
  attr {
    key: "_output_shapes"
    value {
      list {
        shape {
        }
      }
    }
  }
  attr {
    key: "dtype"
    value {
      type: DT_INT64
    }
  }
}
node {
  name: "global_step/cond/Switch"
  op: "Switch"
  input: "global_step/IsVariableInitialized"
  input: "global_step/IsVariableInitialized"
  attr {
    key: "T"
    value {
      type: DT_BOOL
    }
  }
  attr {
    key: "_output_shapes"
    value {
      list {
        shape {
        }
        shape {
        }
      }
    }
  }
}
node {
  name: "global_step/cond/switch_t"
  op: "Identity"
  input: "global_step/cond/Switch:1"
  attr {
    key: "T"
    value {
      type: DT_BOOL
    }
  }
  attr {
    key: "_output_shapes"
    value {
      list {
        shape {
        }
      }
    }
  }
}
node {
  name: "global_step/cond/switch_f"
  op: "Identity"
  input: "global_step/cond/Switch"
  attr {
    key: "T"
    value {
      type: DT_BOOL
    }
  }
  attr {
    key: "_output_shapes"
    value {
      list {
        shape {
        }
      }
    }
  }
}
node {
  name: "global_step/cond/pred_id"
  op: "Identity"
  input: "global_step/IsVariableInitialized"
  attr {
    key: "T"
    value {
      type: DT_BOOL
    }
  }
  attr {
    key: "_output_shapes"
    value {
      list {
        shape {
        }
      }
    }
  }
}
node {
  name: "global_step/cond/read"
  op: "Identity"
  input: "global_step/cond/read/Switch:1"
  attr {
    key: "T"
    value {
      type: DT_INT64
    }
  }
  attr {
    key: "_output_shapes"
    value {
      list {
        shape {
        }
      }
    }
  }
}
node {
  name: "global_step/cond/read/Switch"
  op: "RefSwitch"
  input: "global_step"
  input: "global_step/cond/pred_id"
  attr {
    key: "T"
    value {
      type: DT_INT64
    }
  }
  attr {
    key: "_class"
    value {
      list {
        s: "loc:@global_step"
      }
    }
  }
  attr {
    key: "_output_shapes"
    value {
      list {
        shape {
        }
        shape {
        }
      }
    }
  }
}
node {
  name: "global_step/cond/Switch_1"
  op: "Switch"
  input: "global_step/Initializer/zeros"
  input: "global_step/cond/pred_id"
  attr {
    key: "T"
    value {
      type: DT_INT64
    }
  }
  attr {
    key: "_class"
    value {
      list {
        s: "loc:@global_step"
      }
    }
  }
  attr {
    key: "_output_shapes"
    value {
      list {
        shape {
        }
        shape {
        }
      }
    }
  }
}
node {
  name: "global_step/cond/Merge"
  op: "Merge"
  input: "global_step/cond/Switch_1"
  input: "global_step/cond/read"
  attr {
    key: "N"
    value {
      i: 2
    }
  }
  attr {
    key: "T"
    value {
      type: DT_INT64
    }
  }
  attr {
    key: "_output_shapes"
    value {
      list {
        shape {
        }
        shape {
        }
      }
    }
  }
}
node {
  name: "global_step/add/y"
  op: "Const"
  attr {
    key: "_output_shapes"
    value {
      list {
        shape {
        }
      }
    }
  }
  attr {
    key: "dtype"
    value {
      type: DT_INT64
    }
  }
  attr {
    key: "value"
    value {
      tensor {
        dtype: DT_INT64
        tensor_shape {
        }
        int64_val: 0
      }
    }
  }
}
node {
  name: "global_step/add"
  op: "Add"
  input: "global_step/cond/Merge"
  input: "global_step/add/y"
  attr {
    key: "T"
    value {
      type: DT_INT64
    }
  }
  attr {
    key: "_output_shapes"
    value {
      list {
        shape {
        }
      }
    }
  }
}
node {
  name: "tensors/component_0"
  op: "Const"
  device: "/device:CPU:0"
  attr {
    key: "_output_shapes"
    value {
      list {
        shape {
          dim {
            size: 1599
          }
        }
      }
    }
  }
  attr {
    key: "dtype"
    value {
      type: DT_DOUBLE
    }
  }
  attr {
    key: "value"
    value {
      tensor {
        dtype: DT_DOUBLE
        tensor_shape {
          dim {
            size: 1599
          }
        }
        tensor_content: "\315\314\314\314\314\314\"@\232\231\231\231\231\231#@\232\231\231\231\231\231#@\232\231\231\231\231\231#@\315\314\314\314\314\314\"@\315\314\314\314\314\314\"@\315\314\314\314\314\314\"@\000\000\000\000\000\000$@\000\000\000\000\000\000#@\000\000\000\000\000\000%@ffffff\"@\000\000\000\000\000\000%@\315\314\314\314\314\314#@333333\"@ffffff\"@ffffff\"@\000\000\000\000\000\000%@\232\231\231\231\231\231\"@\000\000\000\000\000\000\"@ffffff\"@\315\314\314\314\314\314\"@ffffff#@\000\000\000\000\000\000#@\315\314\314\314\314\314\"@ffffff#@\232\231\231\231\231\231\"@\000\000\000\000\000\000#@\000\000\000\000\000\000#@\315\314\314\314\314\314\"@\232\231\231\231\231\231#@333333$@333333%@\232\231\231\231\231\231#@\315\314\314\314\314\314\"@ffffff\"@333333#@\232\231\231\231\231\231%@ffffff#@\232\231\231\231\231\231#@\000\000\000\000\000\000%@\000\000\000\000\000\000%@\232\231\231\231\231\231\"@\000\000\000\000\000\000%@\232\231\231\231\231\231$@\000\000\000\000\000\000#@333333*@ffffff\"@\000\000\000\000\000\000#@ffffff\"@ffffff\"@ffffff\"@\315\314\314\314\314\314\"@\315\314\314\314\314\314\"@\315\314\314\314\314\314\"@ffffff$@\000\000\000\000\000\000#@333333#@\315\314\314\314\314\314\"@\000\000\000\000\000\000$@\315\314\314\314\314\314\"@ffffff\"@\232\231\231\231\231\231\"@\000\000\000\000\000\000#@\232\231\231\231\231\231#@\315\314\314\314\314\314%@\315\314\314\314\314\314%@333333#@ffffff%@ffffff%@\000\000\000\000\000\000%@\000\000\000\000\000\000#@\000\000\000\000\000\000#@\000\000\000\000\000\000#@ffffff\"@333333#@\000\000\000\000\000\000%@\000\000\000\000\000\000%@ffffff%@333333$@333333\"@ffffff\"@\315\314\314\314\314\314\"@333333\"@\315\314\314\314\314\314\"@\232\231\231\231\231\231$@333333$@\315\314\314\314\314\314#@333333#@\000\000\000\000\000\000#@\000\000\000\000\000\000\"@\000\000\000\000\000\000#@\315\314\314\314\314\314#@\232\231\231\231\231\231#@333333#@\000\000\000\000\000\000%@\315\314\314\314\314\314)@ffffff%@ffffff\"@\232\231\231\231\231\231#@\000\000\000\000\000\000\"@ffffff$@\315\314\314\314\314\314$@\000\000\000\000\000\000\"@ffffff\"@\315\314\314\314\314\314\"@ffffff\"@\232\231\231\231\231\231\"@\232\231\231\231\231\231\"@333333#@\232\231\231\231\231\231\"@\000\000\000\000\000\000#@\232\231\231\231\231\231#@\232\231\231\231\231\231#@ffffff#@\000\000\000\000\000\000#@\000\000\000\000\000\000%@\000\000\000\000\000\000$@\315\314\314\314\314\314\"@\315\314\314\314\314\314%@ffffff\"@\000\000\000\000\000\000\"@\315\314\314\314\314\314%@ffffff\"@\000\000\000\000\000\000#@\000\000\000\000\000\000#@\315\314\314\314\314\314\"@\315\314\314\314\314\314%@\315\314\314\314\314\314%@\000\000\000\000\000\000%@\315\314\314\314\314\314\"@\315\314\314\314\314\314\"@\000\000\000\000\000\000*@\000\000\000\000\000\000*@\232\231\231\231\231\231#@\315\314\314\314\314\314#@333333#@\000\000\000\000\000\000#@ffffff\"@\000\000\000\000\000\000#@\000\000\000\000\000\000#@333333#@\000\000\000\000\000\000#@\000\000\000\000\000\000,@\315\314\314\314\314\314\"@\000\000\000\000\000\000,@\315\314\314\314\314\314\"@\000\000\000\000\000\000$@\232\231\231\231\231\231\"@ffffff$@\000\000\000\000\000\000%@\232\231\231\231\231\231$@\315\314\314\314\314\314\"@333333$@333333$@\000\000\000\000\000\000%@\000\000\000\000\000\000%@\000\000\000\000\000\000%@\000\000\000\000\000\000%@\232\231\231\231\231\231\"@\232\231\231\231\231\231\"@333333#@ffffff\"@\000\000\000\000\000\000$@\315\314\314\314\314\314\"@\315\314\314\314\314\314\"@\000\000\000\000\000\000#@ffffff$@\000\000\000\000\000\000\"@\315\314\314\314\314\314$@\000\000\000\000\000\000#@333333\"@ffffff\"@ffffff\"@\000\000\000\000\000\000\'@\000\000\000\000\000\000#@\000\000\000\000\000\000#@\000\000\000\000\000\000#@\000\000\000\000\000\000%@333333#@\000\000\000\000\000\000#@\000\000\000\000\000\000#@\232\231\231\231\231\231\"@\232\231\231\231\231\231\"@\232\231\231\231\231\231\"@\232\231\231\231\231\231\"@ffffff#@ffffff\"@ffffff#@\000\000\000\000\000\000#@\000\000\000\000\000\000#@\315\314\314\314\314\314\"@\232\231\231\231\231\231#@\000\000\000\000\000\000#@ffffff#@ffffff#@\315\314\314\314\314\314\"@ffffff$@333333$@\000\000\000\000\000\000*@\315\314\314\314\314\314&@\232\231\231\231\231\231$@\232\231\231\231\231\231\"@\000\000\000\000\000\000#@ffffff\"@ffffff\"@\232\231\231\231\231\231%@\232\231\231\231\231\231%@\232\231\231\231\231\231\"@\315\314\314\314\314\314\"@\000\000\000\000\000\000%@\315\314\314\314\314\314(@\000\000\000\000\000\000$@ffffff$@333333$@\232\231\231\231\231\231#@\000\000\000\000\000\000%@\000\000\000\000\000\000&@333333\"@ffffff#@\000\000\000\000\000\000#@\315\314\314\314\314\314\"@\315\314\314\314\314\314\"@\000\000\000\000\000\000#@\000\000\000\000\000\000$@\315\314\314\314\314\314$@\000\000\000\000\000\000%@\000\000\000\000\000\000#@\232\231\231\231\231\231#@\000\000\000\000\000\000%@\000\000\000\000\000\000&@ffffff(@\315\314\314\314\314\314#@333333#@\000\000\000\000\000\000&@\000\000\000\000\000\000\"@\000\000\000\000\000\000\"@\000\000\000\000\000\000\"@ffffff\"@\000\000\000\000\000\000\"@\000\000\000\000\000\000\"@\232\231\231\231\231\231\"@\315\314\314\314\314\314%@\232\231\231\231\231\231#@ffffff\"@ffffff\"@\315\314\314\314\314\314#@\000\000\000\000\000\000#@\232\231\231\231\231\231\"@\232\231\231\231\231\231#@\315\314\314\314\314\314#@\000\000\000\000\000\000$@\315\314\314\314\314\314#@\000\000\000\000\000\000%@\000\000\000\000\000\000#@\315\314\314\314\314\314#@\232\231\231\231\231\231\"@ffffff\"@ffffff\"@\315\314\314\314\314\314\"@\000\000\000\000\000\000%@\232\231\231\231\231\231\"@\315\314\314\314\314\314\"@\000\000\000\000\000\000$@\232\231\231\231\231\231\"@\315\314\314\314\314\314%@ffffff$@\232\231\231\231\231\231#@\232\231\231\231\231\231)@\315\314\314\314\314\314\"@333333$@ffffff%@333333$@333333$@\315\314\314\314\314\314\"@\315\314\314\314\314\314\"@ffffff%@\315\314\314\314\314\314\"@333333$@333333)@\000\000\000\000\000\000%@\232\231\231\231\231\231\"@\315\314\314\314\314\314#@333333\"@\000\000\000\000\000\000%@\232\231\231\231\231\231#@\232\231\231\231\231\231#@\232\231\231\231\231\231$@\232\231\231\231\231\231$@333333%@ffffff\"@333333%@\000\000\000\000\000\000%@\232\231\231\231\231\231$@333333$@\000\000\000\000\000\000#@\000\000\000\000\000\000#@\315\314\314\314\314\314#@333333#@ffffff#@333333#@ffffff%@333333$@\000\000\000\000\000\000$@\000\000\000\000\000\000#@ffffff\"@\232\231\231\231\231\231\"@\315\314\314\314\314\314\"@\000\000\000\000\000\000#@\000\000\000\000\000\000#@\000\000\000\000\000\000#@\232\231\231\231\231\231\"@\315\314\314\314\314\314\"@\000\000\000\000\000\000#@\315\314\314\314\314\314\"@\000\000\000\000\000\000&@\000\000\000\000\000\000&@333333$@\315\314\314\314\314\314$@\000\000\000\000\000\000\'@\315\314\314\314\314\314$@\000\000\000\000\000\000\'@ffffff#@\232\231\231\231\231\231\"@\000\000\000\000\000\000#@ffffff\"@ffffff\"@\000\000\000\000\000\000\'@\000\000\000\000\000\000\'@ffffff#@\000\000\000\000\000\000#@\000\000\000\000\000\000)@\000\000\000\000\000\000)@\315\314\314\314\314\314\"@\000\000\000\000\000\000&@ffffff\'@ffffff(@\000\000\000\000\000\000)@\232\231\231\231\231\231$@\000\000\000\000\000\000\'@\232\231\231\231\231\231#@ffffff\"@\232\231\231\231\231\231&@\232\231\231\231\231\231#@\232\231\231\231\231\231#@ffffff%@\315\314\314\314\314\314#@\232\231\231\231\231\231(@\000\000\000\000\000\000(@\000\000\000\000\000\000$@\315\314\314\314\314\314\"@\315\314\314\314\314\314#@\315\314\314\314\314\314\"@\232\231\231\231\231\231\"@\000\000\000\000\000\000*@\315\314\314\314\314\314\'@\232\231\231\231\231\231)@\000\000\000\000\000\000&@ffffff\'@\315\314\314\314\314\314$@\232\231\231\231\231\231#@\315\314\314\314\314\314\"@\315\314\314\314\314\314#@\000\000\000\000\000\000$@ffffff$@\000\000\000\000\000\000$@\232\231\231\231\231\231\'@\000\000\000\000\000\000$@\000\000\000\000\000\000\"@\315\314\314\314\314\314\"@\000\000\000\000\000\000(@\315\314\314\314\314\314#@ffffff!@333333%@ffffff\"@\232\231\231\231\231\231%@\232\231\231\231\231\231\'@\000\000\000\000\000\000&@\000\000\000\000\000\000(@\232\231\231\231\231\231*@\232\231\231\231\231\231%@\315\314\314\314\314\314\"@\000\000\000\000\000\000$@\315\314\314\314\314\314\"@\315\314\314\314\314\314\"@ffffff\"@ffffff#@ffffff\"@333333#@ffffff\"@\000\000\000\000\000\000$@\315\314\314\314\314\314)@\000\000\000\000\000\000$@\000\000\000\000\000\000#@333333\"@\315\314\314\314\314\314#@\000\000\000\000\000\000*@\315\314\314\314\314\314#@\000\000\000\000\000\000&@\000\000\000\000\000\000&@\315\314\314\314\314\314\"@\315\314\314\314\314\314#@\232\231\231\231\231\231%@\000\000\000\000\000\000%@\000\000\000\000\000\000%@333333\"@333333$@\232\231\231\231\231\231%@\232\231\231\231\231\231%@\232\231\231\231\231\231&@333333#@\000\000\000\000\000\000#@\000\000\000\000\000\000#@\232\231\231\231\231\231\"@ffffff\'@\000\000\000\000\000\000#@\232\231\231\231\231\231\"@ffffff\'@\000\000\000\000\000\000%@\315\314\314\314\314\314$@\315\314\314\314\314\314#@\232\231\231\231\231\231\'@\232\231\231\231\231\231(@\315\314\314\314\314\314%@\000\000\000\000\000\000&@\315\314\314\314\314\314%@\232\231\231\231\231\231(@\315\314\314\314\314\314&@333333%@\232\231\231\231\231\231\"@\315\314\314\314\314\314$@\000\000\000\000\000\000&@ffffff\"@\232\231\231\231\231\231)@\000\000\000\000\000\000#@\315\314\314\314\314\314#@\000\000\000\000\000\000#@ffffff$@ffffff&@\315\314\314\314\314\314#@\232\231\231\231\231\231\"@\232\231\231\231\231\231#@\232\231\231\231\231\231&@ffffff&@333333\'@\000\000\000\000\000\000)@333333$@\000\000\000\000\000\000%@ffffff&@ffffff$@\232\231\231\231\231\231%@\232\231\231\231\231\231%@333333\"@\000\000\000\000\000\000$@ffffff&@333333&@\315\314\314\314\314\314*@\232\231\231\231\231\231$@333333#@ffffff&@\000\000\000\000\000\000\"@\232\231\231\231\231\231&@\232\231\231\231\231\231\"@\232\231\231\231\231\231\'@\000\000\000\000\000\000\"@ffffff\"@ffffff#@\000\000\000\000\000\000\'@\000\000\000\000\000\000,@ffffff\"@\232\231\231\231\231\231#@333333%@\315\314\314\314\314\314&@\315\314\314\314\314\314$@333333%@\315\314\314\314\314\314\"@ffffff$@ffffff#@\000\000\000\000\000\000&@ffffff$@333333$@ffffff\"@ffffff\'@\315\314\314\314\314\314\"@\315\314\314\314\314\314\"@\315\314\314\314\314\314*@\000\000\000\000\000\000$@\000\000\000\000\000\000$@\000\000\000\000\000\000$@\232\231\231\231\231\231%@ffffff$@333333%@\232\231\231\231\231\231*@\315\314\314\314\314\314*@333333\'@333333(@\000\000\000\000\000\000&@\000\000\000\000\000\000\"@333333&@\000\000\000\000\000\000&@333333\'@\000\000\000\000\000\000\"@\000\000\000\000\000\000(@\000\000\000\000\000\000(@\315\314\314\314\314\314%@\232\231\231\231\231\231%@\000\000\000\000\000\000)@\232\231\231\231\231\231%@\000\000\000\000\000\000#@ffffff$@\315\314\314\314\314\314&@\000\000\000\000\000\000#@ffffff$@ffffff#@\232\231\231\231\231\231\'@\232\231\231\231\231\231\'@\232\231\231\231\231\231\"@\315\314\314\314\314\314\'@\315\314\314\314\314\314 @ffffff\'@\000\000\000\000\000\000&@\000\000\000\000\000\000$@333333\"@\232\231\231\231\231\231#@\315\314\314\314\314\314\"@\000\000\000\000\000\000#@\315\314\314\314\314\314#@\000\000\000\000\000\000&@\315\314\314\314\314\314&@ffffff!@\315\314\314\314\314\314\"@\232\231\231\231\231\231$@\232\231\231\231\231\231$@\232\231\231\231\231\231$@\232\231\231\231\231\231)@\000\000\000\000\000\000$@\232\231\231\231\231\231$@\315\314\314\314\314\314\"@ffffff%@\000\000\000\000\000\000(@ffffff&@333333#@\000\000\000\000\000\000&@\315\314\314\314\314\314#@\000\000\000\000\000\000&@\315\314\314\314\314\314 @333333\"@\000\000\000\000\000\000#@ffffff%@\315\314\314\314\314\314$@\315\314\314\314\314\314\"@\000\000\000\000\000\000#@\000\000\000\000\000\000$@\000\000\000\000\000\000$@\000\000\000\000\000\000\'@333333&@333333&@ffffff\'@333333&@ffffff\'@ffffff)@\315\314\314\314\314\314&@ffffff\"@ffffff\"@333333$@ffffff)@\315\314\314\314\314\314&@\000\000\000\000\000\000\"@\000\000\000\000\000\000\"@ffffff%@ffffff\'@\000\000\000\000\000\000&@ffffff\'@\315\314\314\314\314\314$@333333#@\000\000\000\000\000\000$@ffffff$@\000\000\000\000\000\000$@\000\000\000\000\000\000#@\232\231\231\231\231\231#@\232\231\231\231\231\231#@333333#@333333#@ffffff\"@\315\314\314\314\314\314#@ffffff%@333333#@333333%@\232\231\231\231\231\231\"@\000\000\000\000\000\000,@\000\000\000\000\000\000%@ffffff#@\000\000\000\000\000\000\'@ffffff#@\000\000\000\000\000\000\"@\000\000\000\000\000\000#@\232\231\231\231\231\231\"@\232\231\231\231\231\231\"@\000\000\000\000\000\000$@\232\231\231\231\231\231#@\232\231\231\231\231\231\"@\000\000\000\000\000\000$@\000\000\000\000\000\000\"@\232\231\231\231\231\231\"@\000\000\000\000\000\000\"@333333\"@ffffff\"@ffffff(@\000\000\000\000\000\000%@\315\314\314\314\314\314$@ffffff)@ffffff\"@\315\314\314\314\314\314\"@\000\000\000\000\000\000$@\232\231\231\231\231\231#@ffffff$@ffffff#@ffffff#@\232\231\231\231\231\231#@ffffff$@\232\231\231\231\231\231\"@\315\314\314\314\314\314\"@\315\314\314\314\314\314\"@\000\000\000\000\000\000#@333333(@ffffff$@ffffff$@333333\"@333333\"@\232\231\231\231\231\231\"@\232\231\231\231\231\231\"@\232\231\231\231\231\231\"@\000\000\000\000\000\000#@\000\000\000\000\000\000%@\232\231\231\231\231\231&@\000\000\000\000\000\000#@ffffff#@\315\314\314\314\314\314\"@\315\314\314\314\314\314\"@ffffff$@\232\231\231\231\231\231$@\315\314\314\314\314\314\"@\000\000\000\000\000\000#@\315\314\314\314\314\314\"@\000\000\000\000\000\000#@\315\314\314\314\314\314\"@333333$@333333$@\000\000\000\000\000\000&@ffffff&@\232\231\231\231\231\231&@333333#@ffffff&@\315\314\314\314\314\314-@\000\000\000\000\000\000(@\000\000\000\000\000\000#@\315\314\314\314\314\314\"@333333#@\000\000\000\000\000\000%@333333#@\000\000\000\000\000\000&@333333#@\000\000\000\000\000\000\"@333333#@ffffff$@ffffff$@ffffff#@\000\000\000\000\000\000#@ffffff\"@\000\000\000\000\000\000&@ffffff\"@\000\000\000\000\000\000$@\000\000\000\000\000\000#@\000\000\000\000\000\000#@\000\000\000\000\000\000#@\232\231\231\231\231\231\"@ffffff$@\232\231\231\231\231\231\"@\315\314\314\314\314\314#@\000\000\000\000\000\000$@333333#@\000\000\000\000\000\000\"@ffffff$@\232\231\231\231\231\231#@\232\231\231\231\231\231&@\315\314\314\314\314\314\"@\232\231\231\231\231\231&@333333\"@ffffff#@\315\314\314\314\314\314\"@\315\314\314\314\314\314\"@ffffff%@\232\231\231\231\231\231#@\000\000\000\000\000\000\"@\315\314\314\314\314\314\"@\315\314\314\314\314\314\"@\232\231\231\231\231\231)@\000\000\000\000\000\000#@\000\000\000\000\000\000#@ffffff#@\232\231\231\231\231\231%@333333$@\000\000\000\000\000\000#@\315\314\314\314\314\314\"@333333#@ffffff#@\315\314\314\314\314\314#@\000\000\000\000\000\000$@\000\000\000\000\000\000%@333333\'@\000\000\000\000\000\000$@333333$@\000\000\000\000\000\000#@\315\314\314\314\314\314\"@\315\314\314\314\314\314\"@\232\231\231\231\231\231#@ffffff\"@\315\314\314\314\314\314\"@\000\000\000\000\000\000$@333333#@\000\000\000\000\000\000#@333333#@ffffff\"@\000\000\000\000\000\000$@\000\000\000\000\000\000#@ffffff&@\315\314\314\314\314\314$@333333&@\000\000\000\000\000\000#@\000\000\000\000\000\000#@ffffff)@333333#@\000\000\000\000\000\000\'@333333#@\000\000\000\000\000\000#@\232\231\231\231\231\231\"@\000\000\000\000\000\000#@\000\000\000\000\000\000#@\232\231\231\231\231\231\"@ffffff\"@\232\231\231\231\231\231\"@\000\000\000\000\000\000\'@\000\000\000\000\000\000#@ffffff\"@\000\000\000\000\000\000$@\000\000\000\000\000\000#@\000\000\000\000\000\000#@\000\000\000\000\000\000\"@\315\314\314\314\314\314\"@333333#@\000\000\000\000\000\000#@\000\000\000\000\000\000#@\000\000\000\000\000\000#@\315\314\314\314\314\314\"@\000\000\000\000\000\000#@333333\"@ffffff%@ffffff&@\232\231\231\231\231\231#@\232\231\231\231\231\231#@ffffff\"@ffffff#@333333#@\000\000\000\000\000\000$@333333#@\000\000\000\000\000\000#@\000\000\000\000\000\000#@\315\314\314\314\314\314\"@\000\000\000\000\000\000#@ffffff#@333333#@ffffff#@\315\314\314\314\314\314\"@\315\314\314\314\314\314\"@\000\000\000\000\000\000#@\000\000\000\000\000\000#@\000\000\000\000\000\000$@\232\231\231\231\231\231$@\232\231\231\231\231\231$@\000\000\000\000\000\000%@\232\231\231\231\231\231#@\315\314\314\314\314\314\"@\232\231\231\231\231\231#@\000\000\000\000\000\000$@\232\231\231\231\231\231#@\232\231\231\231\231\231#@\000\000\000\000\000\000#@\000\000\000\000\000\000#@333333$@333333$@\232\231\231\231\231\231\"@ffffff#@333333#@ffffff#@\232\231\231\231\231\231%@\000\000\000\000\000\000)@ffffff$@333333#@\232\231\231\231\231\231%@ffffff%@ffffff%@\315\314\314\314\314\314\"@\000\000\000\000\000\000$@\315\314\314\314\314\314)@333333#@\315\314\314\314\314\314#@\232\231\231\231\231\231)@\000\000\000\000\000\000)@\232\231\231\231\231\231)@ffffff\"@\232\231\231\231\231\231$@\000\000\000\000\000\000%@\315\314\314\314\314\314%@\232\231\231\231\231\231%@\315\314\314\314\314\314&@\232\231\231\231\231\231&@\232\231\231\231\231\231%@\000\000\000\000\000\000%@\315\314\314\314\314\314\'@\315\314\314\314\314\314\"@333333#@ffffff#@\000\000\000\000\000\000,@\232\231\231\231\231\231#@\232\231\231\231\231\231#@\232\231\231\231\231\231$@ffffff%@\000\000\000\000\000\000&@ffffff%@ffffff)@333333&@\315\314\314\314\314\314%@333333&@\315\314\314\314\314\314#@\315\314\314\314\314\314#@\315\314\314\314\314\314\"@\232\231\231\231\231\231\"@ffffff\'@ffffff\'@ffffff&@\000\000\000\000\000\000$@333333(@\232\231\231\231\231\231$@\315\314\314\314\314\314%@\315\314\314\314\314\314\"@333333%@\232\231\231\231\231\231#@\232\231\231\231\231\231#@\315\314\314\314\314\314#@\232\231\231\231\231\231#@\232\231\231\231\231\231#@\000\000\000\000\000\000#@\000\000\000\000\000\000#@ffffff#@\315\314\314\314\314\314%@\315\314\314\314\314\314%@ffffff\'@\315\314\314\314\314\314%@\232\231\231\231\231\231&@333333%@ffffff&@\000\000\000\000\000\000#@\000\000\000\000\000\000\'@\315\314\314\314\314\314$@ffffff#@\000\000\000\000\000\000#@ffffff#@\232\231\231\231\231\231&@ffffff&@ffffff&@\315\314\314\314\314\314%@\232\231\231\231\231\231\'@333333%@\000\000\000\000\000\000$@333333&@\232\231\231\231\231\231\'@\232\231\231\231\231\231\'@\315\314\314\314\314\314%@\232\231\231\231\231\231\'@\000\000\000\000\000\000$@\000\000\000\000\000\000#@\315\314\314\314\314\314#@\315\314\314\314\314\314&@\000\000\000\000\000\000(@\000\000\000\000\000\000#@\000\000\000\000\000\000$@\000\000\000\000\000\000%@\315\314\314\314\314\314$@333333(@ffffff&@\232\231\231\231\231\231\"@333333$@ffffff#@\232\231\231\231\231\231\"@ffffff#@\232\231\231\231\231\231#@ffffff%@\000\000\000\000\000\000)@ffffff%@\000\000\000\000\000\000)@\000\000\000\000\000\000&@\232\231\231\231\231\231\'@\232\231\231\231\231\231%@\232\231\231\231\231\231%@\232\231\231\231\231\231%@\232\231\231\231\231\231%@\000\000\000\000\000\000#@\000\000\000\000\000\000&@\000\000\000\000\000\000\'@\232\231\231\231\231\231%@\000\000\000\000\000\000\'@ffffff*@\315\314\314\314\314\314%@ffffff(@ffffff(@\000\000\000\000\000\000\'@\315\314\314\314\314\314\'@\000\000\000\000\000\000&@333333$@\000\000\000\000\000\000&@\232\231\231\231\231\231\'@\000\000\000\000\000\000%@\000\000\000\000\000\000&@\232\231\231\231\231\231\'@333333$@ffffff&@\000\000\000\000\000\000&@ffffff$@ffffff\"@ffffff&@\000\000\000\000\000\000(@\000\000\000\000\000\000%@\232\231\231\231\231\231#@\000\000\000\000\000\000#@\232\231\231\231\231\231#@\000\000\000\000\000\000%@\232\231\231\231\231\231\'@\232\231\231\231\231\231\'@\315\314\314\314\314\314$@\315\314\314\314\314\314)@\315\314\314\314\314\314&@\315\314\314\314\314\314(@\000\000\000\000\000\000)@\000\000\000\000\000\000$@ffffff#@333333(@333333&@\000\000\000\000\000\000(@\315\314\314\314\314\314(@\315\314\314\314\314\314\'@\315\314\314\314\314\314\'@\315\314\314\314\314\314\'@\315\314\314\314\314\314(@ffffff&@333333(@ffffff(@\315\314\314\314\314\314$@\232\231\231\231\231\231&@333333&@\232\231\231\231\231\231&@\000\000\000\000\000\000$@333333&@\232\231\231\231\231\231\"@\000\000\000\000\000\000#@ffffff&@333333&@\000\000\000\000\000\000&@\315\314\314\314\314\314\'@ffffff\"@ffffff(@ffffff$@\315\314\314\314\314\314%@\315\314\314\314\314\314%@333333\'@ffffff%@333333(@\315\314\314\314\314\314\"@\315\314\314\314\314\314\"@333333\"@\232\231\231\231\231\231&@\315\314\314\314\314\314$@\000\000\000\000\000\000%@\000\000\000\000\000\000$@\315\314\314\314\314\314)@\000\000\000\000\000\000%@\315\314\314\314\314\314$@\232\231\231\231\231\231&@\315\314\314\314\314\314&@\315\314\314\314\314\314\"@\315\314\314\314\314\314\"@\315\314\314\314\314\314%@\315\314\314\314\314\314\"@\315\314\314\314\314\314\"@\315\314\314\314\314\314\"@\315\314\314\314\314\314\"@\315\314\314\314\314\314\"@333333$@\232\231\231\231\231\231)@\232\231\231\231\231\231)@333333\"@\315\314\314\314\314\314)@\000\000\000\000\000\000\'@333333%@ffffff\'@\232\231\231\231\231\231)@\232\231\231\231\231\231$@\232\231\231\231\231\231)@ffffff\'@ffffff\'@\000\000\000\000\000\000(@\315\314\314\314\314\314%@\232\231\231\231\231\231(@\315\314\314\314\314\314$@\000\000\000\000\000\000$@\000\000\000\000\000\000$@ffffff&@\315\314\314\314\314\314&@333333)@ffffff)@ffffff)@\315\314\314\314\314\314$@\315\314\314\314\314\314\'@\315\314\314\314\314\314\'@\000\000\000\000\000\000%@\232\231\231\231\231\231(@\000\000\000\000\000\000%@\315\314\314\314\314\314$@333333)@333333\'@333333$@\000\000\000\000\000\000%@\000\000\000\000\000\000\'@\000\000\000\000\000\000&@333333#@\315\314\314\314\314\314$@ffffff#@333333%@\000\000\000\000\000\000)@ffffff\"@333333)@333333&@ffffff$@\232\231\231\231\231\231#@333333&@\315\314\314\314\314\314%@ffffff(@\315\314\314\314\314\314&@ffffff%@\315\314\314\314\314\314$@\315\314\314\314\314\314%@\232\231\231\231\231\231%@\315\314\314\314\314\314$@ffffff\"@\315\314\314\314\314\314)@ffffff)@333333\"@333333\"@333333(@333333\"@333333\'@333333(@\315\314\314\314\314\314#@\000\000\000\000\000\000)@\315\314\314\314\314\314&@\232\231\231\231\231\231\'@\232\231\231\231\231\231\'@ffffff$@\000\000\000\000\000\000)@\315\314\314\314\314\314%@\315\314\314\314\314\314%@\232\231\231\231\231\231%@333333&@ffffff\"@\000\000\000\000\000\000#@ffffff%@ffffff\"@ffffff$@\315\314\314\314\314\314&@\000\000\000\000\000\000&@\000\000\000\000\000\000&@\232\231\231\231\231\231(@\232\231\231\231\231\231\'@\232\231\231\231\231\231(@\000\000\000\000\000\000#@\000\000\000\000\000\000(@\000\000\000\000\000\000#@333333#@333333\'@ffffff&@\315\314\314\314\314\314#@\315\314\314\314\314\314#@\232\231\231\231\231\231\'@\315\314\314\314\314\314&@\000\000\000\000\000\000\'@\000\000\000\000\000\000(@\232\231\231\231\231\231%@\000\000\000\000\000\000%@\232\231\231\231\231\231%@\315\314\314\314\314\314\"@\000\000\000\000\000\000)@\315\314\314\314\314\314\"@\315\314\314\314\314\314(@\000\000\000\000\000\000(@ffffff&@\000\000\000\000\000\000(@\315\314\314\314\314\314(@\232\231\231\231\231\231)@\232\231\231\231\231\231(@ffffff\'@\000\000\000\000\000\000#@\232\231\231\231\231\231%@\000\000\000\000\000\000$@\232\231\231\231\231\231(@\000\000\000\000\000\000&@\000\000\000\000\000\000#@333333+@\232\231\231\231\231\231&@\232\231\231\231\231\231&@\232\231\231\231\231\231&@\232\231\231\231\231\231*@\315\314\314\314\314\314)@333333*@\232\231\231\231\231\231(@\232\231\231\231\231\231(@ffffff&@\000\000\000\000\000\000\'@\232\231\231\231\231\231&@\000\000\000\000\000\000+@\000\000\000\000\000\000\'@\000\000\000\000\000\000$@\000\000\000\000\000\000%@\315\314\314\314\314\314$@\000\000\000\000\000\000#@333333+@ffffff&@\232\231\231\231\231\231\'@\315\314\314\314\314\314\'@\315\314\314\314\314\314&@\315\314\314\314\314\314&@333333\"@\000\000\000\000\000\000#@\000\000\000\000\000\000#@\000\000\000\000\000\000&@\315\314\314\314\314\314&@\000\000\000\000\000\000$@333333$@\315\314\314\314\314\314$@\232\231\231\231\231\231#@\232\231\231\231\231\231\'@333333\'@\000\000\000\000\000\000(@\232\231\231\231\231\231)@\000\000\000\000\000\000)@\232\231\231\231\231\231#@333333&@\315\314\314\314\314\314&@\232\231\231\231\231\231#@\232\231\231\231\231\231\'@\315\314\314\314\314\314)@333333%@\232\231\231\231\231\231%@333333&@ffffff$@\232\231\231\231\231\231\'@\000\000\000\000\000\000$@\000\000\000\000\000\000$@\315\314\314\314\314\314\"@ffffff$@\315\314\314\314\314\314(@\000\000\000\000\000\000(@\000\000\000\000\000\000\'@\000\000\000\000\000\000%@\232\231\231\231\231\231%@\232\231\231\231\231\231(@\000\000\000\000\000\000#@\000\000\000\000\000\000#@\000\000\000\000\000\000\'@ffffff&@ffffff)@\315\314\314\314\314\314&@\000\000\000\000\000\000&@\000\000\000\000\000\000&@\315\314\314\314\314\314&@\000\000\000\000\000\000%@\232\231\231\231\231\231\"@\315\314\314\314\314\314%@\315\314\314\314\314\314\'@ffffff(@\315\314\314\314\314\314\'@\315\314\314\314\314\314%@333333#@\000\000\000\000\000\000)@\232\231\231\231\231\231%@\315\314\314\314\314\314(@\232\231\231\231\231\231%@\000\000\000\000\000\000#@\000\000\000\000\000\000#@\000\000\000\000\000\000#@\232\231\231\231\231\231#@\315\314\314\314\314\314%@\000\000\000\000\000\000#@\232\231\231\231\231\231#@ffffff&@ffffff\'@\315\314\314\314\314\314\"@\000\000\000\000\000\000&@\000\000\000\000\000\000&@\000\000\000\000\000\000&@\000\000\000\000\000\000$@\000\000\000\000\000\000&@ffffff&@\315\314\314\314\314\314$@\232\231\231\231\231\231\"@\315\314\314\314\314\314$@\000\000\000\000\000\000%@\315\314\314\314\314\314$@\232\231\231\231\231\231&@\000\000\000\000\000\000#@\000\000\000\000\000\000(@333333%@\315\314\314\314\314\314%@\000\000\000\000\000\000\'@\000\000\000\000\000\000\'@333333#@\000\000\000\000\000\000(@\232\231\231\231\231\231$@\315\314\314\314\314\314\"@ffffff\"@333333#@333333+@\000\000\000\000\000\000#@\232\231\231\231\231\231\'@\232\231\231\231\231\231%@\000\000\000\000\000\000#@\232\231\231\231\231\231\"@\232\231\231\231\231\231)@\000\000\000\000\000\000\'@\315\314\314\314\314\314\"@\232\231\231\231\231\231)@333333#@\232\231\231\231\231\231\'@\232\231\231\231\231\231\"@\232\231\231\231\231\231#@ffffff(@\000\000\000\000\000\000#@\232\231\231\231\231\231$@\000\000\000\000\000\000%@\000\000\000\000\000\000$@\000\000\000\000\000\000%@333333&@\315\314\314\314\314\314%@\315\314\314\314\314\314%@\232\231\231\231\231\231#@\232\231\231\231\231\231#@\000\000\000\000\000\000#@\315\314\314\314\314\314%@\000\000\000\000\000\000&@ffffff\"@\000\000\000\000\000\000&@\232\231\231\231\231\231&@\232\231\231\231\231\231&@\232\231\231\231\231\231\"@ffffff&@\232\231\231\231\231\231#@333333#@\232\231\231\231\231\231\'@\232\231\231\231\231\231$@\232\231\231\231\231\231$@\315\314\314\314\314\314&@\000\000\000\000\000\000#@\000\000\000\000\000\000,@\000\000\000\000\000\000,@ffffff\'@ffffff&@\232\231\231\231\231\231\"@ffffff&@\000\000\000\000\000\000#@\000\000\000\000\000\000(@ffffff#@\000\000\000\000\000\000#@\000\000\000\000\000\000\'@\315\314\314\314\314\314$@\315\314\314\314\314\314$@\315\314\314\314\314\314%@ffffff$@\315\314\314\314\314\314%@\000\000\000\000\000\000%@\315\314\314\314\314\314(@\000\000\000\000\000\000*@ffffff$@ffffff$@\000\000\000\000\000\000&@\315\314\314\314\314\314%@\315\314\314\314\314\314(@ffffff#@\315\314\314\314\314\314%@\000\000\000\000\000\000#@\000\000\000\000\000\000#@333333(@ffffff(@\315\314\314\314\314\314%@\000\000\000\000\000\000)@ffffff\'@ffffff&@ffffff&@ffffff\"@\232\231\231\231\231\231#@333333$@333333&@333333$@ffffff\"@\232\231\231\231\231\231#@\232\231\231\231\231\231)@\000\000\000\000\000\000%@333333$@333333$@\232\231\231\231\231\231#@\000\000\000\000\000\000)@\315\314\314\314\314\314\'@\232\231\231\231\231\231#@333333\"@333333$@\000\000\000\000\000\000)@\315\314\314\314\314\314&@\000\000\000\000\000\000&@333333%@333333%@333333%@333333%@\232\231\231\231\231\231\"@\232\231\231\231\231\231#@\232\231\231\231\231\231#@ffffff\"@ffffff#@333333#@\000\000\000\000\000\000$@333333)@\000\000\000\000\000\000#@\000\000\000\000\000\000#@\000\000\000\000\000\000#@\000\000\000\000\000\000%@\000\000\000\000\000\000%@\000\000\000\000\000\000%@\315\314\314\314\314\314$@\000\000\000\000\000\000%@\000\000\000\000\000\000&@ffffff$@\315\314\314\314\314\314&@\000\000\000\000\000\000#@\000\000\000\000\000\000#@\232\231\231\231\231\231%@\000\000\000\000\000\000$@\232\231\231\231\231\231\'@\232\231\231\231\231\231$@\232\231\231\231\231\231$@\000\000\000\000\000\000$@333333$@333333$@333333&@\000\000\000\000\000\000#@\376\020\021\021\021\021$@\315\314\314\314\314\314%@333333$@\376\020\021\021\021\021$@\232\231\231\231\231\231#@\232\231\231\231\231\231\'@\000\000\000\000\000\000#@\232\231\231\231\231\231#@\000\000\000\000\000\000%@\232\231\231\231\231\231#@\315\314\314\314\314\314$@ffffff\"@333333\'@ffffff\"@\232\231\231\231\231\231\"@\232\231\231\231\231\231#@\315\314\314\314\314\314#@\000\000\000\000\000\000$@ffffff(@\315\314\314\314\314\314#@\232\231\231\231\231\231%@\232\231\231\231\231\231%@333333#@\315\314\314\314\314\314#@\315\314\314\314\314\314#@\000\000\000\000\000\000#@ffffff\"@333333#@333333#@\232\231\231\231\231\231$@ffffff#@\000\000\000\000\000\000)@\000\000\000\000\000\000&@\232\231\231\231\231\231#@ffffff$@ffffff\"@\232\231\231\231\231\031#@\232\231\231\231\231\031#@\315\314\314\314\314\314#@ffffff$@333333&@\315\314\314\314\314\314#@\315\314\314\314\314\314#@\315\314\314\314\314\314\'@\000\000\000\000\000\000$@ffffff%@\232\231\231\231\231\231&@\315\314\314\314\314\314%@ffffff%@\315\314\314\314\314\314(@ffffff%@\315\314\314\314\314\314\'@333333%@\315\314\314\314\314\314%@333333$@333333#@\315\314\314\314\314\314\"@333333#@333333(@\232\231\231\231\231\231#@\315\314\314\314\314\314#@\232\231\231\231\231\231#@\315\314\314\314\314\314\"@\315\314\314\314\314\314&@\000\000\000\000\000\000&@333333#@333333#@333333(@ffffff&@\000\000\000\000\000\000&@\232\231\231\231\231\231&@\315\314\314\314\314\314$@\315\314\314\314\314\314#@ffffff\'@333333$@\000\000\000\000\000\000\"@\000\000\000\000\000\000\"@\000\000\000\000\000\000!@333333&@\232\231\231\231\231\231$@4\"\"\"\"\"&@\232\231\231\231\231\231&@$\"\"\"\"\"#@\232\231\231\231\231\231#@ffffff\'@333333&@333333#@\232\231\231\231\231\231#@ffffff#@ffffff#@\232\231\231\231\231\231&@\232\231\231\231\231\231&@\000\000\000\000\000\000&@333333\'@\000\000\000\000\000\000\"@\315\314\314\314\314\314%@\315\314\314\314\314\314%@\232\231\231\231\231\031%@\000\000\000\000\000\000\"@\000\000\000\000\000\000%@\315\314\314\314\314\314\'@\315\314\314\314\314\314$@\000\000\000\000\000\000$@\315\314\314\314\314\314$@\232\231\231\231\231\231%@ffffff#@ffffff#@\000\000\000\000\000\000$@\000\000\000\000\000\000&@\000\000\000\000\000\000$@ffffff#@ffffff#@333333)@333333&@\000\000\000\000\000\000&@\232\231\231\231\231\231!@4\"\"\"\"\"+@\232\231\231\231\231\231!@333333+@ffffff$@333333%@333333$@333333%@\232\231\231\231\231\231$@ffffff%@\315\314\314\314\314\314%@ffffff#@\232\231\231\231\231\231$@333333%@\315\314\314\314\314\314&@\232\231\231\231\231\231%@\315\314\314\314\314\314(@\315\314\314\314\314\314&@fffff\346\'@ffffff#@\000\000\000\000\000\000$@333333%@ffffff#@\000\000\000\000\000\000\'@\232\231\231\231\231\231%@\000\000\000\000\000\000\'@333333#@\315\314\314\314\314\314\"@\232\231\231\231\231\231#@\000\000\000\000\000\000&@\315\314\314\314\314\314&@fffff\346#@\232\231\231\231\231\231%@\315\314\314\314\314\314&@333333%@333333&@ffffff#@\232\231\231\231\231\231#@\315\314\314\314\314\314$@\000\000\000\000\000\000%@vwwwww\"@\000\000\000\000\000\200\"@333333%@\232\231\231\231\231\231$@\000\000\000\000\000\000%@ffffff$@\232\231\231\231\231\231$@\232\231\231\231\231\031\"@333333%@\315\314\314\314\314\314$@\000\000\000\000\000\000$@ffffff#@333333#@\232\231\231\231\231\231%@333333$@ffffff$@\232\231\231\231\231\231&@ffffff$@\315\314\314\314\314\314#@\000\000\000\000\000\000\"@ffffff\'@ffffff#@\232\231\231\231\231\231$@ffffff$@\000\000\000\000\000\000(@\315\314\314\314\314\314#@333333\'@\315\314\314\314\314\314%@\000\000\000\000\000\200%@\315\314\314\314\314\314$@ffffff&@333333$@ffffff$@333333(@\315\314\314\314\314\314$@\315\314\314\314\314\314&@\000\000\000\000\000\000#@\315\314\314\314\314\314\"@\232\231\231\231\231\231&@\315\314\314\314\314\314\"@\000\000\000\000\000\000&@\232\231\231\231\231\031%@\315\314\314\314\314\314#@\000\000\000\000\000\000&@\000\000\000\000\000\000#@\315\314\314\314\314\314#@\315\314\314\314\314\314#@\315\314\314\314\314\314#@333333$@333333$@333333$@\315\314\314\314\314\314%@ffffff&@333333$@ffffff\"@\000\000\000\000\000\000\'@\315\314\314\314\314\314(@333333&@\000\000\000\000\000\000#@\000\000\000\000\000\000)@\000\000\000\000\000\000%@\232\231\231\231\231\231\'@\232\231\231\231\231\231%@\315\314\314\314\314\314\'@\232\231\231\231\231\231&@\232\231\231\231\231\231&@\315\314\314\314\314\314\'@\232\231\231\231\231\231&@\315\314\314\314\314\314\'@\232\231\231\231\231\231#@333333\'@\000\000\000\000\000\000\'@\315\314\314\314\314\314&@\315\314\314\314\314\314%@\232\231\231\231\231\231)@ffffff\"@333333\'@333333\'@\000\000\000\000\000\000&@\000\000\000\000\000\000#@\000\000\000\000\000\000%@ffffff&@\000\000\000\000\000\000&@ffffff$@\000\000\000\000\000\000&@"
      }
    }
  }
}
node {
  name: "tensors/component_1"
  op: "Const"
  device: "/device:CPU:0"
  attr {
    key: "_output_shapes"
    value {
      list {
        shape {
          dim {
            size: 1599
          }
        }
      }
    }
  }
  attr {
    key: "dtype"
    value {
      type: DT_DOUBLE
    }
  }
  attr {
    key: "value"
    value {
      tensor {
        dtype: DT_DOUBLE
        tensor_shape {
          dim {
            size: 1599
          }
        }
        tensor_content: "\333\371~j\274t\263?J\014\002+\207\026\271?Zd;\337O\215\267?333333\263?\333\371~j\274t\263?333333\263?D\213l\347\373\251\261?\244p=\n\327\243\260?\343\245\233\304 \260\262?\223\030\004V\016-\262?\241E\266\363\375\324\270?\223\030\004V\016-\262?c\020X9\264\310\266?\311v\276\237\032/\275?\273I\014\002+\207\306?\303\365(\\\217\302\305?Zd;\337O\215\267?Zd;\337O\215\327?j\274t\223\030\004\266?m\347\373\251\361\322\325?\203\300\312\241E\266\263?\312\241E\266\363\375\264?\211A`\345\320\"\273?\033/\335$\006\201\265?\303\365(\\\217\302\265?{\024\256G\341z\264?{\024\256G\341z\264?\211A`\345\320\"\273?{\024\256G\341z\264?\312\241E\266\363\375\264?c\020X9\264\310\266?\341z\024\256G\341\272?sh\221\355|?\265?\343\245\233\304 \260\262?\222\355|?5^\272?j\274t\223\030\004\266?j\274t\223\030\004\266?L7\211A`\345\260?j\274t\223\030\004\306?\214l\347\373\251\361\262?\214l\347\373\251\361\262?\273I\014\002+\207\266?sh\221\355|?\325?D\213l\347\373\251\261?\232\231\231\231\231\231\251?\332\316\367S\343\245\253?\311v\276\237\032/\275?!\260rh\221\355\274?L7\211A`\345\260?\214l\347\373\251\361\262?\214l\347\373\251\361\262?D\213l\347\373\251\261?\234\304 \260rh\261?#\333\371~j\274\264?)\\\217\302\365(\274?\033/\335$\006\201\265?\354Q\270\036\205\353\261?\321\"\333\371~j\274?\333\371~j\274t\263?\214l\347\373\251\361\262?\323Mb\020X9\264?q=\n\327\243p\275?\303\365(\\\217\302\265?#\333\371~j\274\264?j\274t\223\030\004\266?j\274t\223\030\004\266?\323Mb\020X9\264?\333\371~j\274t\263?\214l\347\373\251\361\262?\214l\347\373\251\361\262?\333\371~j\274t\263?\273I\014\002+\207\266?\033/\335$\006\201\265?\033/\335$\006\201\265?\252\361\322Mb\020\270?\003+\207\026\331\316\267?\003+\207\026\331\316\267?:\264\310v\276\237\272?j\274t\223\030\004\266?{\024\256G\341z\264?D\213l\347\373\251\261?\030\004V\016-\262\335?j\274t\223\030\004\266?D\213l\347\373\251\331?D\213l\347\373\251\261?\333\371~j\274t\263?)\\\217\302\365(\274?X9\264\310v\276\257?1\010\254\034Zd\273?\333\371~j\274t\263?\323Mb\020X9\264?)\\\217\302\365(\274?)\\\217\302\365(\274?X9\264\310v\276\257?\n\327\243p=\n\247?\030\004V\016-\262\255?\351&1\010\254\034\272?\354Q\270\036\205\353\261?\323Mb\020X9\264?{\024\256G\341z\264?\033/\335$\006\201\265?333333\263?{\024\256G\341z\264?\203\300\312\241E\266\263?\354Q\270\036\205\353\261?\203\300\312\241E\266\263?\027\331\316\367S\343\335?\273I\014\002+\207\266?\262\235\357\247\306K\267?\010\254\034Zd;\277?:\264\310v\276\237\272?\033/\335$\006\201\265?\303\365(\\\217\302\265?{\024\256G\341z\264?:\264\310v\276\237\272?\n\327\243p=\n\267?\203\300\312\241E\266\263?\312\241E\266\363\375\264?\021X9\264\310v\276?\241E\266\363\375\324\270?c\020X9\264\310\306?\021X9\264\310v\276?333333\263?{\024\256G\341z\264?\312\241E\266\363\375\264?\343\245\233\304 \260\302?#\333\371~j\274\264?\312\241E\266\363\375\264?\244p=\n\327\243\260?<\337O\215\227n\262?i\221\355|?5\276?J\014\002+\207\026\251?J\014\002+\207\026\251?\270\036\205\353Q\270\256?\033/\335$\006\201\265?\n\327\243p=\n\267?c\020X9\264\310\266?#\333\371~j\274\264?#\333\371~j\274\264?#\333\371~j\274\264?\n\327\243p=\n\267?c\020X9\264\310\266?\232\231\231\231\231\231\251?L7\211A`\345\260?\232\231\231\231\231\231\251?\300\312\241E\266\363\275?\022\203\300\312\241E\266?i\221\355|?5\316?\214l\347\373\251\361\262?c\020X9\264\310\266?\203\300\312\241E\266\263?\205\353Q\270\036\205\343?R\270\036\205\353Q\270?R\270\036\205\353Q\270?\354Q\270\036\205\353\261?\223\030\004V\016-\262?\354Q\270\036\205\353\261?\223\030\004V\016-\262?\343\245\233\304 \260\262?\323Mb\020X9\264?\n\327\243p=\n\267?<\337O\215\227n\262?\333\371~j\274t\263?\354Q\270\036\205\353\261?\354Q\270\036\205\353\261?\232\231\231\231\231\231\271?\303\365(\\\217\302\265?<\337O\215\227n\262?c\020X9\264\310\266?\n\327\243p=\n\327?\030\004V\016-\262\255?\343\245\233\304 \260\262?\343\245\233\304 \260\262?\234\304 \260rh\261?{\024\256G\341z\264?\303\365(\\\217\302\265?{\024\256G\341z\264?\022\203\300\312\241E\266?\234\304 \260rh\261?\364\375\324x\351&\261?\364\375\324x\351&\261?H\341z\024\256G\321?\333\371~j\274t\263?\203\300\312\241E\266\263?\323Mb\020X9\264?\321\"\333\371~j\274?\312\241E\266\363\375\264?\033/\335$\006\201\265?\033/\335$\006\201\265?\312\241E\266\363\375\264?\203\300\312\241E\266\263?\214l\347\373\251\361\262?\362\322Mb\020X\271?\223\030\004V\016-\262?\223\030\004V\016-\262?\214l\347\373\251\361\262?\214l\347\373\251\361\262?\364\375\324x\351&\261?Zd;\337O\215\247?\010\254\034Zd;\257?x\351&1\010\254\254?\241E\266\363\375\324\270?333333\263?\273I\014\002+\207\266?c\020X9\264\310\266?R\270\036\205\353Q\270?R\270\036\205\353Q\270?D\213l\347\373\251\261?\232\231\231\231\231\231\271?\332\316\367S\343\245\253?+\207\026\331\316\367\243?sh\221\355|?\265?i\221\355|?5\256?\270\036\205\353Q\270\256?Zd;\337O\215\267?\270\036\205\353Q\270\256?A`\345\320\"\333\271?<\337O\215\227n\262?\333\371~j\274t\263?{\024\256G\341z\264?\312\241E\266\363\375\264?A`\345\320\"\333\271?\311v\276\237\032/\255?sh\221\355|?\265?c\020X9\264\310\266?\343\245\233\304 \260\262?\305 \260rh\221\325?c\020X9\264\310\266?\343\245\233\304 \260\262?#\333\371~j\274\264?\332\316\367S\343\245\253?+\207\026\331\316\367\263?\n\327\243p=\n\267?#\333\371~j\274\264?\244p=\n\327\243\260?\241E\266\363\375\324\270?\241E\266\363\375\324\270?\241E\266\363\375\324\270?\241E\266\363\375\324\270?\244p=\n\327\243\260?\242E\266\363\375\324\320?\003+\207\026\331\316\267?\351&1\010\254\034\272?333333\263?333333\263?\033/\335$\006\201\265?333333\263?<\337O\215\227n\262?\214l\347\373\251\361\262?\033/\335$\006\201\265?T\343\245\233\304 \260?\214l\347\373\251\361\262?\n\327\243p=\n\267?Zd;\337O\215\267?\214l\347\373\251\361\262?\343\245\233\304 \260\262?333333\263?333333\263?Zd;\337O\215\343?\303\365(\\\217\302\265?\203\300\312\241E\266\263?\022\203\300\312\241E\266?\354Q\270\036\205\353\261?\203\300\312\241E\266\263?\374\251\361\322Mb\260?\223\030\004V\016-\262?\372~j\274t\223\270?+\207\026\331\316\367\263?\203\300\312\241E\266\263?:\264\310v\276\237\272?\022\203\300\312\241E\266?:\264\310v\276\237\272?\223\030\004V\016-\262?\333\371~j\274t\263?\273I\014\002+\207\266?\022\203\300\312\241E\266?\203\300\312\241E\266\263?:\264\310v\276\237\272?\343\245\233\304 \260\262?\022\203\300\312\241E\266?\223\030\004V\016-\262?\266\363\375\324x\351\326?\364\375\324x\351&\261?\022\203\300\312\241E\266?\351&1\010\254\034\272?\351&1\010\254\034\272?\343\245\233\304 \260\262?Zd;\337O\215\267?\262\235\357\247\306K\267?\341z\024\256G\341\272?\262\235\357\247\306K\267?\300\312\241E\266\363\325?\262\235\357\247\306K\267?J\014\002+\207\026\271?\252\361\322Mb\020\270?\343\245\233\304 \260\262?j\274t\223\030\004\266?sh\221\355|?\265?\252\361\322Mb\020\270?{\024\256G\341z\264?j\274t\223\030\004\266?\234\304 \260rh\261?Zd;\337O\215\267?\003+\207\026\331\316\307?x\351&1\010\254\274?T\343\245\233\304 \260?\312\241E\266\363\375\264?\335$\006\201\225C\313?1\010\254\034Zd\313?X9\264\310v\276\257?T\343\245\233\304 \260?<\337O\215\227n\262?\003+\207\026\331\316\267?\333\371~j\274t\263?\022\203\300\312\241E\266?\372~j\274t\223\270?\351&1\010\254\034\272?\312\241E\266\363\375\264?sh\221\355|?\265?\312\241E\266\363\375\264?sh\221\355|?\265?\n\327\243p=\n\267?\323Mb\020X9\264?\n\327\243p=\n\267?\223\030\004V\016-\262?\223\030\004V\016-\262?`\345\320\"\333\371\276?1\010\254\034Zd\273?\312\241E\266\363\375\264?\010\254\034Zd;\257?\010\254\034Zd;\277?\010\254\034Zd;\277?L7\211A`\345\260?\341z\024\256G\341\272?+\207\026\331\316\367\263?\374\251\361\322Mb\300?:\264\310v\276\237\252?{\024\256G\341z\264?\222\355|?5^\272?\312\241E\266\363\375\264?L7\211A`\345\260?\244p=\n\327\243\260?i\221\355|?5\276?i\221\355|?5\276?\312\241E\266\363\375\264?\364\375\324x\351&\261?<\337O\215\227n\262?\003+\207\026\331\316\267?c\020X9\264\310\266?\003+\207\026\331\316\267?1\010\254\034Zd\273?\372~j\274t\223\270?\n\327\243p=\n\267?\270\036\205\353Q\270\276?L7\211A`\345\260?+\207\026\331\316\367\263?{\024\256G\341z\264?\030\004V\016-\262\275?\201\225C\213l\347\273?\273I\014\002+\207\266?\362\322Mb\020X\271?j\274t\223\030\004\266?<\337O\215\227n\262?\223\030\004V\016-\262?sh\221\355|?\265?1\010\254\034Zd\273?sh\221\355|?\265?\333\371~j\274t\263?\'1\010\254\034Z\304?\214l\347\373\251\361\262?T\343\245\233\304 \260?x\351&1\010\254\254?\364\375\324x\351&\261?\211A`\345\320\"\273?c\020X9\264\310\266?X9\264\310v\276\277?+\207\026\331\316\367\263?\214l\347\373\251\361\262?\273I\014\002+\207\266?\252\361\322Mb\020\270?{\024\256G\341z\264?\303\365(\\\217\302\265?{\024\256G\341z\264?{\024\256G\341z\264?\022\203\300\312\241E\266?\n\327\243p=\n\267?\273I\014\002+\207\266?\323Mb\020X9\264?\273I\014\002+\207\266?\372~j\274t\223\270?\n\327\243p=\n\247?\303\365(\\\217\302\265?\312\241E\266\363\375\264?x\351&1\010\254\274?T\343\245\233\304 \260?L7\211A`\345\260?\010\254\034Zd;\277?\022\203\300\312\241E\266?\022\203\300\312\241E\266?\374\251\361\322Mb\260?\010\254\034Zd;\277?i\221\355|?5\256?\303\365(\\\217\302\265?\303\365(\\\217\302\265?333333\263?i\221\355|?5\256?T\343\245\233\304 \260?\003+\207\026\331\316\267?\022\203\300\312\241E\306?\354Q\270\036\205\353\261?{\024\256G\341z\264?{\024\256G\341z\264?\232\231\231\231\231\231\271?\241E\266\363\375\324\270?\022\203\300\312\241E\266?\300\312\241E\266\363\275?\321\"\333\371~j\274?\262\235\357\247\306K\267?`\345\320\"\333\371\276?L7\211A`\345\260?c\020X9\264\310\266?i\221\355|?5\256?\252\361\322Mb\020\250?L7\211A`\345\260?\252\361\322Mb\020\250?i\221\355|?5\256?\n\327\243p=\n\247?\203\300\312\241E\266\263?\354Q\270\036\205\353\261?\273I\014\002+\207\266?L7\211A`\345\260?\214l\347\373\251\361\262?+\207\026\331\316\367\263?\262\235\357\247\306K\267?\333\371~j\274t\263?\262\235\357\247\306K\267?\270\036\205\353Q\270\256?L7\211A`\345\260?\333\371~j\274t\263?X9\264\310v\276\257?<\337O\215\227n\262?\234\304 \260rh\261?\232\231\231\231\231\231\271?\203\300\312\241E\266\263?\332\316\367S\343\245\253?\323Mb\020X9\264?#\333\371~j\274\264?\250\306K7\211A\300?\232\231\231\231\231\231\271?R\270\036\205\353Q\270?R\270\036\205\353Q\270?;\337O\215\227n\332?\033/\335$\006\201\265?\033/\335$\006\201\265?T\343\245\233\304 \260?j\274t\223\030\004\266?R\270\036\205\353Q\270?\241E\266\363\375\324\270?\033/\335$\006\201\265?\214l\347\373\251\361\262?sh\221\355|?\265?\022\203\300\312\241E\266?\303\365(\\\217\302\265?J\014\002+\207\026\271?\033/\335$\006\201\265?J\014\002+\207\026\271?D\213l\347\373\251\261?\244p=\n\327\243\260?\n\327\243p=\n\267?\354Q\270\036\205\353\261?\003+\207\026\331\316\267?#\333\371~j\274\264?sh\221\355|?\265?X9\264\310v\276\257?{\024\256G\341z\264?\022\203\300\312\241E\266?\262\235\357\247\306K\267?333333\263?\022\203\300\312\241E\266?\203\300\312\241E\266\263?D\213l\347\373\251\261?{\024\256G\341z\264?\333\371~j\274t\303?\333\371~j\274t\303?\311v\276\237\032/\275?\332\316\367S\343\245\253?\332\316\367S\343\245\253?\211A`\345\320\"\253?#\333\371~j\274\264?\343\245\233\304 \260\262?+\207\026\331\316\367\263?)\\\217\302\365(\254?:\264\310v\276\237\252?j\274t\223\030\004\266?\351&1\010\254\034\252?\354Q\270\036\205\353\261?#\333\371~j\274\264?\n\327\243p=\n\267?\354Q\270\036\205\353\261?j\274t\223\030\004\266?#\333\371~j\274\264?\214l\347\373\251\361\262?\214l\347\373\251\361\262?+\207\026\331\316\367\263?\203\300\312\241E\266\263?<\337O\215\227n\262?333333\263?\033/\335$\006\201\265?\n\327\243p=\n\267?\033/\335$\006\201\265?\343\245\233\304 \260\262?\n\327\243p=\n\267?\000\000\000\000\000\000\300?1\010\254\034Zd\273?1\010\254\034Zd\273?\010\254\034Zd;\277?\232\231\231\231\231\231\271?\232\231\231\231\231\231\311?\273I\014\002+\207\266?\273I\014\002+\207\266?\273I\014\002+\207\266?\273I\014\002+\207\266?\362\322Mb\020X\271?\303\365(\\\217\302\265?j\274t\223\030\004\266?\341z\024\256G\341\272?\273I\014\002+\207\266?\241E\266\363\375\324\270?\033/\335$\006\201\265?\203\300\312\241E\266\263?+\207\026\331\316\367\263?J\014\002+\207\026\271?J\014\002+\207\026\271?<\337O\215\227n\262?\351&1\010\254\034\272?+\207\026\331\316\367\263?\203\300\312\241E\266\263?\033/\335$\006\201\265?L7\211A`\345\260?\232\231\231\231\231\231\271?A`\345\320\"\333\271?\374\251\361\322Mb\260?\354Q\270\036\205\353\261?\303\365(\\\217\302\265?333333\263?\252\361\322Mb\020\270?+\207\026\331\316\367\263?\364\375\324x\351&\261?\323Mb\020X9\264?\027\331\316\367S\343\305?\214l\347\373\251\361\262?Zd;\337O\215\267?Zd;\337O\215\267?\232\231\231\231\231\231\251?R\270\036\205\353Q\270?R\270\036\205\353Q\270?i\221\355|?5\276?R\270\036\205\353Q\270?i\221\355|?5\276?\303\365(\\\217\302\265?333333\263?+\207\026\331\316\367\263?\252\361\322Mb\020\270?Zd;\337O\215\267?\303\365(\\\217\302\265?333333\263?!\260rh\221\355\314?!\260rh\221\355\314?\000\000\000\000\000\000\320?R\270\036\205\353Q\270?\354Q\270\036\205\353\261?R\270\036\205\353Q\270?333333\263?\354Q\270\036\205\353\261?+\207\026\331\316\367\263?\323Mb\020X9\264?\222\355|?5^\272?sh\221\355|?\265?\303\365(\\\217\302\265?T\343\245\233\304 \260?c\020X9\264\310\266?c\020X9\264\310\266?sh\221\355|?\265?\214l\347\373\251\361\262?\003+\207\026\331\316\267?\262\235\357\247\306K\267?\252\361\322Mb\020\270?\332\316\367S\343\245\273?\270\036\205\353Q\270\256?i\221\355|?5\256?\033/\335$\006\201\265?\354Q\270\036\205\353\261?\033/\335$\006\201\265?\252\361\322Mb\020\270?\372~j\274t\223\270?j\274t\223\030\004\266?i\221\355|?5\256?\223\030\004V\016-\262?+\207\026\331\316\367\263?\312\241E\266\363\375\264?\273I\014\002+\207\266?\223\030\004V\016-\262?#\333\371~j\274\264?\223\030\004V\016-\262?\372~j\274t\223\270?\303\365(\\\217\302\265?<\337O\215\227n\262?Zd;\337O\215\267?)\\\217\302\365(\274?333333\263?sh\221\355|?\265?#\333\371~j\274\264?\203\300\312\241E\266\263?\030\004V\016-\262\255?\214l\347\373\251\361\302?\323Mb\020X9\264?\323Mb\020X9\264?\323Mb\020X9\264?\010\254\034Zd;\277?\273I\014\002+\207\266?\333\371~j\274t\263?+\207\026\331\316\367\263?{\024\256G\341z\264?\203\300\312\241E\266\263?X9\264\310v\276\277?X9\264\310v\276\277?J\014\002+\207\026\271?J\014\002+\207\026\271?\241E\266\363\375\324\270?\321\"\333\371~j\274?\241E\266\363\375\324\270?\341z\024\256G\341\272?\022\203\300\312\241E\266?\341z\024\256G\341\272?\343\245\233\304 \260\262?\244p=\n\327\243\260?j\274t\223\030\004\266?\033/\335$\006\201\265?\350\373\251\361\322M\302?\364\375\324x\351&\261?\223\030\004V\016-\262?\223\030\004V\016-\262?\223\030\004V\016-\262?\223\030\004V\016-\262?\223\030\004V\016-\262?q=\n\327\243p\275?1\010\254\034Zd\273?\354Q\270\036\205\353\261?L7\211A`\345\260?\234\304 \260rh\261?\211A`\345\320\"\273?:\264\310v\276\237\272?\372~j\274t\223\270?\323Mb\020X9\264?\214l\347\373\251\361\262?\022\203\300\312\241E\266?\211A`\345\320\"\273?\343\245\233\304 \260\262?\214l\347\373\251\361\262?\372~j\274t\223\270?\214l\347\373\251\361\262?{\024\256G\341z\264?\333\371~j\274t\263?\232\231\231\231\231\231\251?Zd;\337O\215\267?\033/\335$\006\201\265?\321\"\333\371~j\314?\312\241E\266\363\375\264?i\221\355|?5\256?\312\241E\266\363\375\264?sh\221\355|?\265?\214l\347\373\251\361\262?\323Mb\020X9\264?\214l\347\373\251\361\262?\033/\335$\006\201\265?\374\251\361\322Mb\260?\033/\335$\006\201\265?\033/\335$\006\201\265?#\333\371~j\274\264?\270\036\205\353Q\270\256?\354Q\270\036\205\353\261?\252\361\322Mb\020\270?+\207\026\331\316\367\263?i\221\355|?5\256?+\207\026\331\316\367\263?i\221\355|?5\256?\354Q\270\036\205\353\261?R\270\036\205\353Q\270?+\207\026\331\316\367\243?\177j\274t\223\030\304?\241E\266\363\375\324\270?\022\203\300\312\241E\266?6^\272I\014\002\333?\033/\335$\006\201\265?\033/\335$\006\201\265?\234\304 \260rh\241?L7\211A`\345\260?L7\211A`\345\260?\022\203\300\312\241E\266?\223\030\004V\016-\262?\333\371~j\274t\263?L7\211A`\345\260?\364\375\324x\351&\261?\343\245\233\304 \260\262?+\207\026\331\316\367\263?\343\245\233\304 \260\262?\003+\207\026\331\316\267?\203\300\312\241E\266\263?\234\304 \260rh\261?X9\264\310v\276\257?{\024\256G\341z\264?\003+\207\026\331\316\267?\033/\335$\006\201\265?333333\263?+\207\026\331\316\367\263?D\213l\347\373\251\261?333333\263?\323Mb\020X9\264?\312\241E\266\363\375\264?j\274t\223\030\004\266?\312\241E\266\363\375\264?\252\361\322Mb\020\270?\033/\335$\006\201\265?\211A`\345\320\"\253?j\274t\223\030\004\266?\203\300\312\241E\266\263?\033/\335$\006\201\265?\364\375\324x\351&\261?\364\375\324x\351&\261?\223\030\004V\016-\262?\370S\343\245\233\304\330?\273I\014\002+\207\266?Zd;\337O\215\267?\312\241E\266\363\375\264?333333\263?x\351&1\010\254\274?x\351&1\010\254\274?\003+\207\026\331\316\267?Zd;\337O\215\267?\273I\014\002+\207\266?333333\263?+\207\026\331\316\367\263?\244p=\n\327\243\260?\372~j\274t\223\270?R\270\036\205\353Q\270?\354Q\270\036\205\353\261?{\024\256G\341z\264?sh\221\355|?\265?\223\030\004V\016-\262?\354Q\270\036\205\353\261?c\020X9\264\310\266?c\020X9\264\310\266?\241E\266\363\375\324\270?c\020X9\264\310\266?\217\302\365(\\\217\332?\030\004V\016-\262\255?\311v\276\237\032/\255?\033/\335$\006\201\265?\033/\335$\006\201\265?Zd;\337O\215\267?333333\263?\372~j\274t\223\270?D\213l\347\373\251\261?\372~j\274t\223\270?\003+\207\026\331\316\267?\262\235\357\247\306K\267?c\020X9\264\310\266?\222\355|?5^\272?\312\241E\266\363\375\264?\333\371~j\274t\263?\312\241E\266\363\375\264?\312\241E\266\363\375\264?\312\241E\266\363\375\264?\177j\274t\223\030\304?\177j\274t\223\030\304?\351&1\010\254\034\272?\264\310v\276\237\032\317?\r\002+\207\026\331\316?\323Mb\020X9\264?\333\371~j\274t\263?R\270\036\205\353Q\310?\311v\276\237\032/\275?#\333\371~j\274\264?\311v\276\237\032/\275?\203\300\312\241E\266\263?sh\221\355|?\265?sh\221\355|?\265?\323Mb\020X9\264?\323Mb\020X9\264?\362\322Mb\020X\271?\312\241E\266\363\375\264?\033/\335$\006\201\265?#\333\371~j\274\264?)\\\217\302\365(\254?\244p=\n\327\243\260?L7\211A`\345\300?T\343\245\233\304 \300?\333\371~j\274t\243?\312\241E\266\363\375\264?\312\241E\266\363\375\264?\312\241E\266\363\375\264?\234\304 \260rh\261?\273I\014\002+\207\246?\311v\276\237\032/\275?\033/\335$\006\201\265?:\264\310v\276\237\252?\312\241E\266\363\375\244?:\264\310v\276\237\252?\037\205\353Q\270\036\305?\354Q\270\036\205\353\261?\234\304 \260rh\261?<\337O\215\227n\262?\362\322Mb\020X\271?\351&1\010\254\034\272?\222\355|?5^\272?\362\322Mb\020X\271?#\333\371~j\274\264?\033/\335$\006\201\265?\223\030\004V\016-\262?\241E\266\363\375\324\270?\362\322Mb\020X\271?\372~j\274t\223\250?\333\371~j\274t\263?\333\371~j\274t\263?\234\304 \260rh\261?\333\371~j\274t\263?\232\231\231\231\231\231\251?\333\371~j\274t\263?\244p=\n\327\243\260?\223\030\004V\016-\262?\030\004V\016-\262\255?\223\030\004V\016-\262?\217\302\365(\\\217\302?7\211A`\345\320\302?\273I\014\002+\207\266?L7\211A`\345\260?\372~j\274t\223\210?\372~j\274t\223\210?333333\263?Zd;\337O\215\267?\303\365(\\\217\302\265?q=\n\327\243p\275?\021X9\264\310v\276?\273I\014\002+\207\266?X9\264\310v\276\257?#\333\371~j\274\264?#\333\371~j\274\264?+\207\026\331\316\367\263?#\333\371~j\274\264?{\024\256G\341z\264?\303\365(\\\217\302\265?\303\365(\\\217\302\265?{\024\256G\341z\264?{\024\256G\341z\264?{\024\256G\341z\264?\223\030\004V\016-\262?{\024\256G\341z\264?\343\245\233\304 \260\262?\332\316\367S\343\245\253?\214l\347\373\251\361\262?\203\300\312\241E\266\263?+\207\026\331\316\367\243?\364\375\324x\351&\261?+\207\026\331\316\367\263?\203\300\312\241E\266\263?\203\300\312\241E\266\263?\223\030\004V\016-\262?<\337O\215\227n\262?\214l\347\373\251\361\262?{\024\256G\341z\264?\374\251\361\322Mb\260?j\274t\223\030\004\266?\364\375\324x\351&\261?\364\375\324x\351&\261?:\264\310v\276\237\272?\201\225C\213l\347\273?\364\375\324x\351&\261?\374\251\361\322Mb\260?\252\361\322Mb\020\270?\333\371~j\274t\263?+\207\026\331\316\367\263?\234\304 \260rh\261?\241E\266\363\375\324\310?\333\371~j\274t\263?\252\361\322Mb\020\270?j\274t\223\030\004\266?sh\221\355|?\265?L7\211A`\345\260?<\337O\215\227n\262?x\351&1\010\254\274?\223\030\004V\016-\262?+\207\026\331\316\367\263?\312\241E\266\363\375\264?+\207\026\331\316\367\263?{\024\256G\341z\264?{\024\256G\341z\264?+\207\026\331\316\367\263?{\024\256G\341z\264?+\207\026\331\316\367\263?\033/\335$\006\201\265?x\351&1\010\254\254?{\024\256G\341z\264?{\024\256G\341z\264?\270\036\205\353Q\270\256?\270\036\205\353Q\270\256?#\333\371~j\274\264?\033/\335$\006\201\265?\323Mb\020X9\264?+\207\026\331\316\367\263?i\221\355|?5\256?L7\211A`\345\300?\311v\276\237\032/\275?\244p=\n\327\243\260?\252\361\322Mb\020\270?i\221\355|?5\256?\323Mb\020X9\264?\317\367S\343\245\233\304?\033/\335$\006\201\265?#\333\371~j\274\264?<\337O\215\227n\262?\262\235\357\247\306K\267?#\333\371~j\274\264?<\337O\215\227n\262?\033/\335$\006\201\265?)\\\217\302\365(\254?\374\251\361\322Mb\260?\010\254\034Zd;\257?\003+\207\026\331\316\267?)\\\217\302\365(\254?T\343\245\233\304 \260?{\024\256G\341z\264?\214l\347\373\251\361\262?+\207\026\331\316\367\263?\214l\347\373\251\361\262?{\024\256G\341z\264?\270\036\205\353Q\270\256?\270\036\205\353Q\270\256?\223\030\004V\016-\262?\234\304 \260rh\261?\343\245\233\304 \260\262?\214l\347\373\251\361\262?\312\241E\266\363\375\264?Zd;\337O\215\267?\252\361\322Mb\020\270?\n\327\243p=\n\267?\223\030\004V\016-\262?Zd;\337O\215\267?\003+\207\026\331\316\267?333333\263?333333\263?333333\263?\003+\207\026\331\316\267?\030\004V\016-\262\255?:\264\310v\276\237\252?\312\241E\266\363\375\264?\n\327\243p=\n\267?\321\"\333\371~j\274?\273I\014\002+\207\266?\270\036\205\353Q\270\276?c\020X9\264\310\266?\030\004V\016-\262\255?+\207\026\331\316\367\263?q=\n\327\243p\275?\232\231\231\231\231\231\271?\030\004V\016-\262\255?\244p=\n\327\243\260?\222\355|?5^\272?\241E\266\363\375\324\270?\234\304 \260rh\261?\323Mb\020X9\264?L7\211A`\345\260?L7\211A`\345\260?:\264\310v\276\237\272?\323Mb\020X9\264?\343\245\233\304 \260\262?sh\221\355|?\265?sh\221\355|?\265?\201\225C\213l\347\273?\010\254\034Zd;\257?333333\263?\244p=\n\327\243\260?\323Mb\020X9\264?\354Q\270\036\205\353\261?\244p=\n\327\243\260?333333\263?\374\251\361\322Mb\260?L7\211A`\345\260?{\024\256G\341z\264?\241E\266\363\375\324\270?\343\245\233\304 \260\262?\241E\266\363\375\324\270?\312\241E\266\363\375\264?\333\371~j\274t\263?\312\241E\266\363\375\264?Zd;\337O\215\267?\323Mb\020X9\264?\022\203\300\312\241E\266?\022\203\300\312\241E\266?\232\231\231\231\231\231\251?)\\\217\302\365(\254?X9\264\310v\276\257?\030\004V\016-\262\255?T\343\245\233\304 \260?\364\375\324x\351&\261?#\333\371~j\274\264?\364\375\324x\351&\261?T\343\245\233\304 \260?\374\251\361\322Mb\260?)\\\217\302\365(\274?\030\004V\016-\262\275?\364\375\324x\351&\261?\273I\014\002+\207\266?\351&1\010\254\034\272?Zd;\337O\215\267?\270\036\205\353Q\270\276?333333\263?\234\304 \260rh\261?J\014\002+\207\026\251?J\014\002+\207\026\251?+\207\026\331\316\367\263?\261rh\221\355|\277?\261rh\221\355|\277?X9\264\310v\276\257?J\014\002+\207\026\271?\273I\014\002+\207\266?R\270\036\205\353Q\270?L7\211A`\345\260?\244p=\n\327\243\260?333333\263?\273I\014\002+\207\266?\262\235\357\247\306K\267?\003+\207\026\331\316\267?R\270\036\205\353Q\270?c\020X9\264\310\266?\203\300\312\241E\266\263?\303\365(\\\217\302\265?\312\241E\266\363\375\264?\214l\347\373\251\361\262?+\207\026\331\316\367\263?\273I\014\002+\207\266?\273I\014\002+\207\266?\323Mb\020X9\264?\273I\014\002+\207\266?D\213l\347\373\251\261?Zd;\337O\215\247?\354Q\270\036\205\353\261?\333\371~j\274t\263?\312\241E\266\363\375\264?#\333\371~j\274\264?\033/\335$\006\201\265?\312\241E\266\363\375\264?\345\320\"\333\371~\332?\343\245\233\304 \260\262?\354Q\270\036\205\353\261?R\270\036\205\353Q\270?R\270\036\205\353Q\270?A`\345\320\"\333\271?:\264\310v\276\237\272?\003+\207\026\331\316\267?A`\345\320\"\333\271?\214l\347\373\251\361\262?\223\030\004V\016-\262?J\014\002+\207\026\271?333333\263?\364\375\324x\351&\261?sh\221\355|?\265?\354Q\270\036\205\353\261?\270\036\205\353Q\270\256?\270\036\205\353Q\270\256?j\274t\223\030\004\266?\311v\276\237\032/\255?J\014\002+\207\026\271?sh\221\355|?\265?\273I\014\002+\207\266?J\014\002+\207\026\271?\223\030\004V\016-\262?\343\245\233\304 \260\262?{\024\256G\341z\264?{\024\256G\341z\264?\232\231\231\231\231\231\251?\252\361\322Mb\020\250?\232\231\231\231\231\231\251?\343\245\233\304 \260\262?<\337O\215\227n\262?\343\245\233\304 \260\262?\214l\347\373\251\361\262?)\\\217\302\365(\254?\311v\276\237\032/\255?R\270\036\205\353Q\270?R\270\036\205\353Q\270?sh\221\355|?\265?j\274t\223\030\004\266?#\333\371~j\274\264?\323Mb\020X9\264?\300\312\241E\266\363\275?\022\203\300\312\241E\266?\300\312\241E\266\363\275?\372~j\274t\223\270?\332\316\367S\343\245\313?\372~j\274t\223\270?<\337O\215\227n\262?\223\030\004V\016-\262?+\207\026\331\316\367\263?\223\030\004V\016-\262?\343\245\233\304 \260\262?\372~j\274t\223\250?D\213l\347\373\251\261?\234\304 \260rh\261?\n\327\243p=\n\267?\027\331\316\367S\343\305?\354Q\270\036\205\353\261?Zd;\337O\215\267?x\351&1\010\254\254?\214l\347\373\251\361\262?Zd;\337O\215\247?\262\235\357\247\306K\267?\262\235\357\247\306K\267?\262\235\357\247\306K\267?\244p=\n\327\243\260?L7\211A`\345\260?\333\371~j\274t\263?X9\264\310v\276\257?)\\\217\302\365(\254?#\333\371~j\274\264?\372~j\274t\223\270?)\\\217\302\365(\254?T\343\245\233\304 \260?<\337O\215\227n\262?R\270\036\205\353Q\270?Zd;\337O\215\267?\030\004V\016-\262\255?\n\327\243p=\n\247?333333\263?c\020X9\264\310\266?\010\254\034Zd;\257?\364\375\324x\351&\261?{\024\256G\341z\264?{\024\256G\341z\264?:\264\310v\276\237\272?\323Mb\020X9\264?{\024\256G\341z\264?{\024\256G\341z\264?j\274t\223\030\004\246?\244p=\n\327\243\260?L7\211A`\345\260?\333\371~j\274t\263?c\020X9\264\310\306?\223\030\004V\016-\262?j\274t\223\030\004\266?\010\254\034Zd;\257?\364\375\324x\351&\261?\273I\014\002+\207\246?i\221\355|?5\276?sh\221\355|?\265?\232\231\231\231\231\231\271?i\221\355|?5\276?\223\030\004V\016-\262?\033/\335$\006\201\245?\333\371~j\274t\263?)\\\217\302\365(\274?\022\203\300\312\241E\266?\333\371~j\274t\263?333333\263?+\207\026\331\316\367\263?+\207\026\331\316\367\263?\004V\016-\262\235\327?\321\"\333\371~j\274?\214l\347\373\251\361\262?\364\375\324x\351&\261?j\274t\223\030\004\266?X9\264\310v\276\257?+\207\026\331\316\367\263?\214l\347\373\251\361\262?\323Mb\020X9\264?\323Mb\020X9\264?R\270\036\205\353Q\270?\323Mb\020X9\264?:\264\310v\276\237\252?\312\241E\266\363\375\244?\333\371~j\274t\263?\333\371~j\274t\263?\234\304 \260rh\261?\234\304 \260rh\261?\354Q\270\036\205\353\261?{\024\256G\341z\264?\303\365(\\\217\302\265?\323Mb\020X9\264?\303\365(\\\217\302\265?{\024\256G\341z\264?333333\263?{\024\256G\341z\264?sh\221\355|?\305?T\343\245\233\304 \260?sh\221\355|?\305?\311v\276\237\032/\275?+\207\026\331\316\367\263?\333\371~j\274t\263?D\213l\347\373\251\261?:\264\310v\276\237\252?\333\371~j\274t\263?D\213l\347\373\251\261?\244p=\n\327\243\260?\234\304 \260rh\261?\321\"\333\371~j\274?\214l\347\373\251\361\262?\214l\347\373\251\361\262?\214l\347\373\251\361\262?\234\304 \260rh\301?\214l\347\373\251\361\262?\223\030\004V\016-\262?+\207\026\331\316\367\263?\333\371~j\274t\263?+\207\026\331\316\367\263?\223\030\004V\016-\262?#\333\371~j\274\264?R\270\036\205\353Q\270?\323Mb\020X9\264?\311v\276\237\032/\255?\312\241E\266\363\375\264?\273I\014\002+\207\246?L7\211A`\345\300?L7\211A`\345\300?+\207\026\331\316\367\263?\214l\347\373\251\361\262?{\024\256G\341z\264?\262\235\357\247\306K\267?{\024\256G\341z\264?:\264\310v\276\237\272?\273I\014\002+\207\246?333333\263?L7\211A`\345\260?\214l\347\373\251\361\262?333333\263?\311v\276\237\032/\255?i\221\355|?5\256?\332\316\367S\343\245\253?\354Q\270\036\205\353\261?i\221\355|?5\256?#\333\371~j\274\264?\311v\276\237\032/\255?\333\371~j\274t\263?\323Mb\020X9\264?\030\004V\016-\262\255?\312\241E\266\363\375\264?\364\375\324x\351&\261?\312\241E\266\363\375\264?j\274t\223\030\004\266?\312\241E\266\363\375\264?#\333\371~j\274\264?\323Mb\020X9\264?\323Mb\020X9\264?\203\300\312\241E\266\263?\261rh\221\355|\277?\372~j\274t\223\270?\323Mb\020X9\264?D\213l\347\373\251\261?\312\241E\266\363\375\264?\303\365(\\\217\302\265?\261rh\221\355|\277?\261rh\221\355|\277?\227n\022\203\300\312\331?sh\221\355|?\265?#\333\371~j\274\264?c\020X9\264\310\266?L7\211A`\345\260?#\333\371~j\274\264?#\333\371~j\274\264?\234\304 \260rh\261?\323Mb\020X9\264?\273I\014\002+\207\246?\372~j\274t\223\250?J\014\002+\207\026\251?\203\300\312\241E\266\263?\343\245\233\304 \260\262?\351&1\010\254\034\272?333333\263?\232\231\231\231\231\231\251?\311v\276\237\032/\275?333333\263?X9\264\310v\276\257?\203\300\312\241E\266\263?\203\300\312\241E\266\263?\033/\335$\006\201\265?\372~j\274t\223\270?\223\030\004V\016-\262?\n\327\243p=\n\267?\234\304 \260rh\261?x\351&1\010\254\254?\234\304 \260rh\261?\234\304 \260rh\261?\232\231\231\231\231\231\271?\343\245\233\304 \260\262?x\351&1\010\254\254?\033/\335$\006\201\265?\343\245\233\304 \260\262?\003+\207\026\331\316\267?\003+\207\026\331\316\267?\374\251\361\322Mb\260?T\343\245\233\304 \260?\357\247\306K7\211\301?{\024\256G\341z\264?\232\231\231\231\231\231\271?\374\251\361\322Mb\260?#\333\371~j\274\264?\022\203\300\312\241E\266?\343\245\233\304 \260\262?\273I\014\002+\207\266?\234\304 \260rh\261?\273I\014\002+\207\266?\223\030\004V\016-\262?\343\245\233\304 \260\262?\374\251\361\322Mb\260?sh\221\355|?\265?j\274t\223\030\004\266?j\274t\223\030\004\266?sh\221\355|?\265?\312\241E\266\363\375\244?\262\235\357\247\306K\267?sh\221\355|?\265?\345\320\"\333\371~\332?\252\361\322Mb\020\270?\312\241E\266\363\375\244?\030\004V\016-\262\255?\270\036\205\353Q\270\256?\203\300\312\241E\266\263?\203\300\312\241E\266\263?\203\300\312\241E\266\263?\203\300\312\241E\266\263?\343\245\233\304 \260\262?sh\221\355|?\265?sh\221\355|?\265?1\010\254\034Zd\273?333333\263?\323Mb\020X9\264?sh\221\355|?\305?D\213l\347\373\251\261?\311v\276\237\032/\255?\311v\276\237\032/\255?\311v\276\237\032/\255?\033/\335$\006\201\265?\033/\335$\006\201\265?\033/\335$\006\201\265?\303\365(\\\217\302\265?\033/\335$\006\201\265?\203\300\312\241E\266\263?T\343\245\233\304 \260?x\351&1\010\254\254?+\207\026\331\316\367\263?+\207\026\331\316\367\263?#\333\371~j\274\264?D\213l\347\373\251\261?\244p=\n\327\243\260?j\274t\223\030\004\266?j\274t\223\030\004\266?\203\300\312\241E\266\263?j\274t\223\030\004\266?\033/\335$\006\201\265?+\207\026\331\316\367\263?\033/\335$\006\201\305?\262\235\357\247\306K\267?x\351&1\010\254\274?\003+\207\026\331\316\267?\262\235\357\247\306K\267?{\024\256G\341z\264?\372~j\274t\223\270?q=\n\327\243p\275?\252\361\322Mb\020\270?\273I\014\002+\207\266?\323Mb\020X9\264?D\213l\347\373\251\261?\217\302\365(\\\217\332?/\335$\006\201\225\303?\217\302\365(\\\217\332?)\\\217\302\365(\274?J\014\002+\207\026\321?sh\221\355|?\265?j\274t\223\030\004\266?\n\327\243p=\n\267?+\207\026\331\316\367\263?\203\300\312\241E\266\263?\203\300\312\241E\266\263?\214l\347\373\251\361\262?{\024\256G\341z\264?{\024\256G\341z\264?1\010\254\034Zd\273?\333\371~j\274t\263?\232\231\231\231\231\231\271?\232\231\231\231\231\231\271?sh\221\355|?\265?{\024\256G\341z\264?\234\304 \260rh\261?\252\361\322Mb\020\270?\354Q\270\036\205\353\261?+\207\026\331\316\367\263?\354Q\270\036\205\353\261?Zd;\337O\215\267?\n\327\243p=\n\267?{\024\256G\341z\264?sh\221\355|?\265?\234\304 \260rh\261?{\024\256G\341z\264?{\024\256G\341z\264?:\264\310v\276\237\252?\010\254\034Zd;\257?\312\241E\266\363\375\264?X9\264\310v\276\257?X9\264\310v\276\257?\374\251\361\322Mb\260?\372~j\274t\223\250?\374\251\361\322Mb\260?\312\241E\266\363\375\264?\223\030\004V\016-\262?X9\264\310v\276\257?:\264\310v\276\237\272?\203\300\312\241E\266\263?\244p=\n\327\243\260?\203\300\312\241E\266\263?\374\251\361\322Mb\260?\203\300\312\241E\266\263?\203\300\312\241E\266\263?\203\300\312\241E\266\263?\323Mb\020X9\264?\323Mb\020X9\264?\261rh\221\355|\277?\333\371~j\274t\263?\333\371~j\274t\263?Zd;\337O\215\247?+\207\026\331\316\367\263?<\337O\215\227n\262?J\014\002+\207\026\251?L7\211A`\345\260?D\213l\347\373\251\261?\033/\335$\006\201\245?D\213l\347\373\251\261?1\010\254\034Zd\313?1\010\254\034Zd\313?n\022\203\300\312\241\305?\354Q\270\036\205\353\261?:\264\310v\276\237\252?<\337O\215\227n\262?X9\264\310v\276\257?\252\361\322Mb\020\270?+\207\026\331\316\367\263?\030\004V\016-\262\255?<\337O\215\227n\262?\252\361\322Mb\020\270?+\207\026\331\316\367\263?{\024\256G\341z\264?{\024\256G\341z\264?x\351&1\010\254\254?X9\264\310v\276\257?:\264\310v\276\237\272?X9\264\310v\276\257?\214l\347\373\251\361\262?\343\245\233\304 \260\262?:\264\310v\276\237\252?\232\231\231\231\231\231\251?\214l\347\373\251\361\262?\364\375\324x\351&\261?\332\316\367S\343\245\253?\332\316\367S\343\245\253?\270\036\205\353Q\270\256?333333\263?\333\371~j\274t\263?T\343\245\233\304 \260?T\343\245\233\304 \260?X9\264\310v\276\257?\364\375\324x\351&\261?X9\264\310v\276\257?\010\254\034Zd;\257?\033/\335$\006\201\265?\364\375\324x\351&\261?\343\245\233\304 \260\262?\223\030\004V\016-\262?=\n\327\243p=\312?\372~j\274t\223\250?=\n\327\243p=\312?\372~j\274t\223\250?\312\241E\266\363\375\264?:\264\310v\276\237\272?{\024\256G\341z\264?:\264\310v\276\237\272?\311v\276\237\032/\275?\033/\335$\006\201\245?\270\036\205\353Q\270\256?\214l\347\373\251\361\262?\354Q\270\036\205\353\261?L7\211A`\345\260?J\014\002+\207\026\251?\372~j\274t\223\250?+\207\026\331\316\367\243?J\014\002+\207\026\251?\232\231\231\231\231\231\251?c\020X9\264\310\266?L7\211A`\345\260?{\024\256G\341z\264?c\020X9\264\310\266?\332\316\367S\343\245\253?\234\304 \260rh\261?\332\316\367S\343\245\253?\333\371~j\274t\263?sh\221\355|?\265?+\207\026\331\316\367\263?\203\300\312\241E\266\263?\211A`\345\320\"\273?+\207\026\331\316\367\263?\354Q\270\036\205\353\261?\211A`\345\320\"\273?\214l\347\373\251\361\262?X9\264\310v\276\257?\252\361\322Mb\020\250?\234\304 \260rh\261?\010\254\034Zd;\257?+\207\026\331\316\367\263?\214l\347\373\251\361\262?\214l\347\373\251\361\262?\223\030\004V\016-\262?T\343\245\233\304 \260?\311v\276\237\032/\275?\211A`\345\320\"\273?T\343\245\233\304 \260?\312\241E\266\363\375\264?\223\030\004V\016-\262?\333\371~j\274t\263?333333\263?\374\251\361\322Mb\260?\374\251\361\322Mb\260?\223\030\004V\016-\262?\372~j\274t\223\270?T\343\245\233\304 \260?T\343\245\233\304 \260?#\333\371~j\274\264?\030\004V\016-\262\255?\214l\347\373\251\361\262?\374\251\361\322Mb\260?333333\263?\203\300\312\241E\266\263?i\221\355|?5\256?#\333\371~j\274\264?\244p=\n\327\243\260?\223\030\004V\016-\262?\332\316\367S\343\245\253?\374\251\361\322Mb\260?\374\251\361\322Mb\260?T\343\245\233\304 \260?i\221\355|?5\256?<\337O\215\227n\262?\372~j\274t\223\250?\362\322Mb\020X\271?\214l\347\373\251\361\262?\022\203\300\312\241E\266?sh\221\355|?\265?\222\355|?5^\272?{\024\256G\341z\264?X9\264\310v\276\257?\244p=\n\327\243\260?L7\211A`\345\260?X9\264\310v\276\257?\024\256G\341z\024\316?{\024\256G\341z\264?{\024\256G\341z\264?{\024\256G\341z\264?\333\371~j\274t\263?\333\371~j\274t\263?\333\371~j\274t\263?\010\254\034Zd;\257?i\221\355|?5\256?\333\371~j\274t\263?\203\300\312\241E\266\263?x\351&1\010\254\254?q=\n\327\243p\315?\333\371~j\274t\243?D\213l\347\373\251\261?333333\263?\214l\347\373\251\361\262?\270\036\205\353Q\270\256?#\333\371~j\274\264?\333\371~j\274t\263?i\221\355|?5\276?\211A`\345\320\"\253?\234\304 \260rh\261?\211A`\345\320\"\253?\211A`\345\320\"\253?\214l\347\373\251\361\262?\010\254\034Zd;\257?L7\211A`\345\260?\244p=\n\327\243\260?L7\211A`\345\260?\234\304 \260rh\261?\343\245\233\304 \260\262?\203\300\312\241E\266\263?c\020X9\264\310\266?\333\371~j\274t\263?\234\304 \260rh\261?\n\327\243p=\n\267?X9\264\310v\276\257?\333\371~j\274t\263?333333\263?\364\375\324x\351&\261?"
      }
    }
  }
}
node {
  name: "tensors/component_2"
  op: "Const"
  device: "/device:CPU:0"
  attr {
    key: "_output_shapes"
    value {
      list {
        shape {
          dim {
            size: 1599
          }
        }
      }
    }
  }
  attr {
    key: "dtype"
    value {
      type: DT_DOUBLE
    }
  }
  attr {
    key: "value"
    value {
      tensor {
        dtype: DT_DOUBLE
        tensor_shape {
          dim {
            size: 1599
          }
        }
        tensor_content: "\000\000\000\000\000\000\000\000\000\000\000\000\000\000\000\000{\024\256G\341z\244?\354Q\270\036\205\353\341?\000\000\000\000\000\000\000\000\000\000\000\000\000\000\000\000\270\036\205\353Q\270\256?\000\000\000\000\000\000\000\000{\024\256G\341z\224?\n\327\243p=\n\327?{\024\256G\341z\264?\n\327\243p=\n\327?\000\000\000\000\000\000\000\000\217\302\365(\\\217\322?\n\327\243p=\n\307?R\270\036\205\353Q\310?\354Q\270\036\205\353\341?\354Q\270\036\205\353\321?{\024\256G\341z\264?R\270\036\205\353Q\340?\270\036\205\353Q\270\336?\327\243p=\n\327\323?\341z\024\256G\341\312?)\\\217\302\365(\274?\354Q\270\036\205\353\301?{\024\256G\341z\304?\270\036\205\353Q\270\316?\341z\024\256G\341\312?\000\000\000\000\000\000\000\000\000\000\000\000\000\000\000\000\354Q\270\036\205\353\261?\000\000\000\000\000\000\000\000\270\036\205\353Q\270\276?\270\036\205\353Q\270\276?\000\000\000\000\000\000\320?\000\000\000\000\000\000\000\000\354Q\270\036\205\353\301?\354Q\270\036\205\353\321?\n\327\243p=\n\267?\n\327\243p=\n\327?\n\327\243p=\n\327?333333\323?\232\231\231\231\231\231\311?)\\\217\302\365(\314?{\024\256G\341z\224?333333\303?\205\353Q\270\036\205\333?\244p=\n\327\243\340?q=\n\327\243p\315?\256G\341z\024\256\327?\244p=\n\327\243\320?{\024\256G\341z\244?{\024\256G\341z\244?\n\327\243p=\n\327?333333\303?{\024\256G\341z\244?=\n\327\243p=\342?\270\036\205\353Q\270\276?\n\327\243p=\n\307?\327\243p=\n\327\323?\232\231\231\231\231\231\331?\\\217\302\365(\\\337?{\024\256G\341z\304?\232\231\231\231\231\231\251?\232\231\231\231\231\231\251?\232\231\231\231\231\231\251?)\\\217\302\365(\274?\354Q\270\036\205\353\261?=\n\327\243p=\342?\232\231\231\231\231\231\251?{\024\256G\341z\264?q=\n\327\243p\315?)\\\217\302\365(\314?\244p=\n\327\243\320?H\341z\024\256G\341?{\024\256G\341z\344?{\024\256G\341z\344?\000\000\000\000\000\000\000\000\270\036\205\353Q\270\276?\232\231\231\231\231\231\311?\232\231\231\231\231\231\311?ffffff\346?\024\256G\341z\024\336?\244p=\n\327\243\320?\270\036\205\353Q\270\336?333333\303?\354Q\270\036\205\353\321?\244p=\n\327\243\320?)\\\217\302\365(\334?{\024\256G\341z\264?\244p=\n\327\243\320?\354Q\270\036\205\353\321?\217\302\365(\\\217\322?\244p=\n\327\243\320?{\024\256G\341z\244?\303\365(\\\217\302\305?\000\000\000\000\000\000\000\000\000\000\000\000\000\000\320?\270\036\205\353Q\270\256?\n\327\243p=\n\307?333333\323?333333\323?\n\327\243p=\n\307?)\\\217\302\365(\314?\270\036\205\353Q\270\316?)\\\217\302\365(\314?\303\365(\\\217\302\345?\327\243p=\n\327\323?\366(\\\217\302\365\340?\244p=\n\327\243\340?R\270\036\205\353Q\310?\n\327\243p=\n\267?\232\231\231\231\231\231\271?)\\\217\302\365(\334?R\270\036\205\353Q\310?\327\243p=\n\327\323?\354Q\270\036\205\353\321?\270\036\205\353Q\270\276?{\024\256G\341z\244?{\024\256G\341z\264?\n\327\243p=\n\267?{\024\256G\341z\244?\000\000\000\000\000\000\000\000\000\000\000\000\000\000\000\000\303\365(\\\217\302\305?{\024\256G\341z\244?\000\000\000\000\000\000\000\000\000\000\000\000\000\000\000\000{\024\256G\341z\304?333333\303?\354Q\270\036\205\353\341?\n\327\243p=\n\267?\n\327\243p=\n\267?{\024\256G\341z\204?\232\231\231\231\231\231\251?)\\\217\302\365(\274?333333\303?\n\327\243p=\n\327?R\270\036\205\353Q\310?R\270\036\205\353Q\310?)\\\217\302\365(\274?333333\303?\000\000\000\000\000\000\000\000{\024\256G\341z\264?\000\000\000\000\000\000\000\000\232\231\231\231\231\231\341?{\024\256G\341z\224?\244p=\n\327\243\320?\232\231\231\231\231\231\271?)\\\217\302\365(\334?\024\256G\341z\024\336?\000\000\000\000\000\000\360?\270\036\205\353Q\270\236?\270\036\205\353Q\270\236?\341z\024\256G\341\332?\341z\024\256G\341\332?\341z\024\256G\341\332?\341z\024\256G\341\332?\000\000\000\000\000\000\000\000\n\327\243p=\n\307?\270\036\205\353Q\270\236?{\024\256G\341z\224?{\024\256G\341z\244?\244p=\n\327\243\320?\244p=\n\327\243\320?\270\036\205\353Q\270\336?\232\231\231\231\231\231\271?\270\036\205\353Q\270\236?\354Q\270\036\205\353\261?\270\036\205\353Q\270\316?\270\036\205\353Q\270\236?\303\365(\\\217\302\305?\303\365(\\\217\302\305?\232\231\231\231\231\231\251?\341z\024\256G\341\312?{\024\256G\341z\244?\341z\024\256G\341\312?\341z\024\256G\341\332?\000\000\000\000\000\000\000\000\354Q\270\036\205\353\301?\354Q\270\036\205\353\301?\\\217\302\365(\\\337?{\024\256G\341z\224?\232\231\231\231\231\231\311?\341z\024\256G\341\312?=\n\327\243p=\342?\270\036\205\353Q\270\336?\232\231\231\231\231\231\271?\037\205\353Q\270\036\325?{\024\256G\341z\324?ffffff\326?\000\000\000\000\000\000\320?\270\036\205\353Q\270\276?\341z\024\256G\341\312?\341z\024\256G\341\312?\037\205\353Q\270\036\325?333333\323?333333\343?{\024\256G\341z\264?\270\036\205\353Q\270\256?\024\256G\341z\024\336?\270\036\205\353Q\270\336?)\\\217\302\365(\274?ffffff\326?\n\327\243p=\n\327?\256G\341z\024\256\347?\256G\341z\024\256\347?\327\243p=\n\327\323?\354Q\270\036\205\353\321?\217\302\365(\\\217\342?333333\343?\270\036\205\353Q\270\316?{\024\256G\341z\344?\244p=\n\327\243\320?{\024\256G\341z\264?\\\217\302\365(\\\337?{\024\256G\341z\304?)\\\217\302\365(\314?R\270\036\205\353Q\310?\037\205\353Q\270\036\325?\256G\341z\024\256\327?\244p=\n\327\243\320?{\024\256G\341z\244?\000\000\000\000\000\000\320?\n\327\243p=\n\327?\000\000\000\000\000\000\320?\000\000\000\000\000\000\340?\354Q\270\036\205\353\301?\000\000\000\000\000\000\320?\000\000\000\000\000\000\320?{\024\256G\341z\244?\270\036\205\353Q\270\256?\232\231\231\231\231\231\311?\000\000\000\000\000\000\320?\n\327\243p=\n\267?\000\000\000\000\000\000\000\000\000\000\000\000\000\000\000\000\000\000\000\000\000\000\000\000\000\000\000\000\000\000\000\000\n\327\243p=\n\267?\256G\341z\024\256\327?\354Q\270\036\205\353\341?\232\231\231\231\231\231\271?)\\\217\302\365(\334?)\\\217\302\365(\334?\000\000\000\000\000\000\000\000\354Q\270\036\205\353\261?\303\365(\\\217\302\305?\270\036\205\353Q\270\256?\000\000\000\000\000\000\000\000)\\\217\302\365(\334?\000\000\000\000\000\000\000\000\270\036\205\353Q\270\336?\341z\024\256G\341\332?\000\000\000\000\000\000\000\000q=\n\327\243p\315?\256G\341z\024\256\327?\000\000\000\000\000\000\000\000R\270\036\205\353Q\350?\024\256G\341z\024\336?q=\n\327\243p\315?{\024\256G\341z\244?\270\036\205\353Q\270\236?q=\n\327\243p\315?\\\217\302\365(\\\337?\244p=\n\327\243\340?\000\000\000\000\000\000\000\000q=\n\327\243p\335?{\024\256G\341z\244?R\270\036\205\353Q\340?\270\036\205\353Q\270\256?R\270\036\205\353Q\340?\217\302\365(\\\217\342?\232\231\231\231\231\231\311?\n\327\243p=\n\307?\270\036\205\353Q\270\256?{\024\256G\341z\244?R\270\036\205\353Q\340?\315\314\314\314\314\314\334?{\024\256G\341z\324?)\\\217\302\365(\334?\303\365(\\\217\302\345?\270\036\205\353Q\270\276?{\024\256G\341z\324?\354Q\270\036\205\353\261?\354Q\270\036\205\353\261?\232\231\231\231\231\231\341?\270\036\205\353Q\270\276?\n\327\243p=\n\267?\366(\\\217\302\365\340?\n\327\243p=\n\267?\270\036\205\353Q\270\336?q=\n\327\243p\315?\000\000\000\000\000\000\320?\244p=\n\327\243\340?q=\n\327\243p\335?\256G\341z\024\256\327?\270\036\205\353Q\270\256?{\024\256G\341z\224?\270\036\205\353Q\270\256?\270\036\205\353Q\270\256?\270\036\205\353Q\270\336?\270\036\205\353Q\270\276?\270\036\205\353Q\270\276?333333\343?\270\036\205\353Q\270\336?{\024\256G\341z\324?\341z\024\256G\341\332?)\\\217\302\365(\334?R\270\036\205\353Q\330?\270\036\205\353Q\270\336?\270\036\205\353Q\270\316?\327\243p=\n\327\323?333333\323?\217\302\365(\\\217\322?\217\302\365(\\\217\322?q=\n\327\243p\315?\270\036\205\353Q\270\276?\366(\\\217\302\365\330?\270\036\205\353Q\270\276?\366(\\\217\302\365\330?\244p=\n\327\243\320?\232\231\231\231\231\231\251?\341z\024\256G\341\332?\232\231\231\231\231\231\311?\232\231\231\231\231\231\311?\037\205\353Q\270\036\345?\000\000\000\000\000\000\340?\327\243p=\n\327\343?\366(\\\217\302\365\330?{\024\256G\341z\344?{\024\256G\341z\344?\354Q\270\036\205\353\321?{\024\256G\341z\264?{\024\256G\341z\204?\366(\\\217\302\365\340?\315\314\314\314\314\314\334?{\024\256G\341z\324?\217\302\365(\\\217\342?H\341z\024\256G\341?\000\000\000\000\000\000\340?\270\036\205\353Q\270\336?\024\256G\341z\024\336?\024\256G\341z\024\336?\000\000\000\000\000\000\340?\000\000\000\000\000\000\000\000{\024\256G\341z\224?q=\n\327\243p\345?\327\243p=\n\327\323?\000\000\000\000\000\000\000\000)\\\217\302\365(\314?\000\000\000\000\000\000\000\000\000\000\000\000\000\000\000\000H\341z\024\256G\351?\232\231\231\231\231\231\331?{\024\256G\341z\204?\244p=\n\327\243\340?\037\205\353Q\270\036\345?\037\205\353Q\270\036\345?\037\205\353Q\270\036\345?q=\n\327\243p\315?\327\243p=\n\327\323?\037\205\353Q\270\036\345?)\\\217\302\365(\344?\037\205\353Q\270\036\345?\000\000\000\000\000\000\340?\037\205\353Q\270\036\345?\205\353Q\270\036\205\343?\244p=\n\327\243\340?\366(\\\217\302\365\340?{\024\256G\341z\224?\232\231\231\231\231\231\331?\270\036\205\353Q\270\336?)\\\217\302\365(\314?)\\\217\302\365(\344?\270\036\205\353Q\270\346?\000\000\000\000\000\000\340?\366(\\\217\302\365\340?\037\205\353Q\270\036\345?R\270\036\205\353Q\330?\341z\024\256G\341\332?\303\365(\\\217\302\345?\341z\024\256G\341\332?\341z\024\256G\341\332?\354Q\270\036\205\353\321?\354Q\270\036\205\353\261?\244p=\n\327\243\320?333333\303?\244p=\n\327\243\320?\327\243p=\n\327\323?\232\231\231\231\231\231\251?\303\365(\\\217\302\345?\244p=\n\327\243\340?\205\353Q\270\036\205\343?\315\314\314\314\314\314\344?R\270\036\205\353Q\350?{\024\256G\341z\224?\341z\024\256G\341\342?\341z\024\256G\341\342?)\\\217\302\365(\314?{\024\256G\341z\224?333333\323?H\341z\024\256G\341?\\\217\302\365(\\\337?\232\231\231\231\231\231\251?q=\n\327\243p\335?\024\256G\341z\024\336?\037\205\353Q\270\036\345?\217\302\365(\\\217\342?\\\217\302\365(\\\337?\303\365(\\\217\302\325?ffffff\326?{\024\256G\341z\304?\366(\\\217\302\365\340?\303\365(\\\217\302\325?\270\036\205\353Q\270\316?{\024\256G\341z\344?\270\036\205\353Q\270\276?R\270\036\205\353Q\340?\000\000\000\000\000\000\000\000\037\205\353Q\270\036\325?\270\036\205\353Q\270\236?\232\231\231\231\231\231\311?\024\256G\341z\024\336?\232\231\231\231\231\231\311?\270\036\205\353Q\270\236?{\024\256G\341z\264?)\\\217\302\365(\314?\037\205\353Q\270\036\325?)\\\217\302\365(\344?\024\256G\341z\024\336?ffffff\326?\024\256G\341z\024\346?)\\\217\302\365(\344?\232\231\231\231\231\231\341?)\\\217\302\365(\344?333333\323?\\\217\302\365(\\\347?\232\231\231\231\231\231\341?\n\327\243p=\n\307?\n\327\243p=\n\347?\315\314\314\314\314\314\344?R\270\036\205\353Q\350?\\\217\302\365(\\\337?{\024\256G\341z\204?\232\231\231\231\231\231\271?333333\343?\217\302\365(\\\217\322?)\\\217\302\365(\314?\024\256G\341z\024\346?\024\256G\341z\024\346?\366(\\\217\302\365\340?\270\036\205\353Q\270\236?)\\\217\302\365(\344?\232\231\231\231\231\231\331?q=\n\327\243p\345?\366(\\\217\302\365\330?\341z\024\256G\341\312?)\\\217\302\365(\344?\037\205\353Q\270\036\345?\244p=\n\327\243\340?)\\\217\302\365(\314?\303\365(\\\217\302\345?ffffff\346?H\341z\024\256G\341?\232\231\231\231\231\231\331?\341z\024\256G\341\332?\315\314\314\314\314\314\334?\024\256G\341z\024\346?{\024\256G\341z\224?\315\314\314\314\314\314\344?\341z\024\256G\341\332?\232\231\231\231\231\231\341?\232\231\231\231\231\231\341?R\270\036\205\353Q\340?\270\036\205\353Q\270\316?=\n\327\243p=\332?\\\217\302\365(\\\337?\270\036\205\353Q\270\316?)\\\217\302\365(\274?\366(\\\217\302\365\330?\354Q\270\036\205\353\341?\341z\024\256G\341\342?333333\343?\303\365(\\\217\302\345?\366(\\\217\302\365\330?\366(\\\217\302\365\330?\n\327\243p=\n\327?\232\231\231\231\231\231\341?\232\231\231\231\231\231\331?H\341z\024\256G\321?\000\000\000\000\000\000\340?R\270\036\205\353Q\340?\327\243p=\n\327\323?q=\n\327\243p\315?\366(\\\217\302\365\340?\000\000\000\000\000\000\320?{\024\256G\341z\324?\366(\\\217\302\365\340?\327\243p=\n\327\323?\000\000\000\000\000\000\320?\\\217\302\365(\\\347?\\\217\302\365(\\\347?\024\256G\341z\024\336?\341z\024\256G\341\332?)\\\217\302\365(\344?q=\n\327\243p\335?\232\231\231\231\231\231\341?\327\243p=\n\327\323?\000\000\000\000\000\000\350?\\\217\302\365(\\\337?\327\243p=\n\327\323?\270\036\205\353Q\270\336?{\024\256G\341z\344?{\024\256G\341z\344?\\\217\302\365(\\\337?\\\217\302\365(\\\337?\\\217\302\365(\\\337?\\\217\302\365(\\\337?\\\217\302\365(\\\337?\\\217\302\365(\\\337?\\\217\302\365(\\\337?\\\217\302\365(\\\337?\\\217\302\365(\\\337?\\\217\302\365(\\\337?\270\036\205\353Q\270\316?\\\217\302\365(\\\337?\\\217\302\365(\\\337?\\\217\302\365(\\\337?\270\036\205\353Q\270\316?\270\036\205\353Q\270\316?\\\217\302\365(\\\337?\\\217\302\365(\\\337?\270\036\205\353Q\270\316?\270\036\205\353Q\270\316?\270\036\205\353Q\270\316?\270\036\205\353Q\270\316?\270\036\205\353Q\270\316?\\\217\302\365(\\\337?\256G\341z\024\256\347?\270\036\205\353Q\270\316?\\\217\302\365(\\\337?\270\036\205\353Q\270\316?\270\036\205\353Q\270\316?\256G\341z\024\256\347?\\\217\302\365(\\\337?\270\036\205\353Q\270\316?\\\217\302\365(\\\337?\\\217\302\365(\\\337?\\\217\302\365(\\\337?{\024\256G\341z\204?\270\036\205\353Q\270\316?\270\036\205\353Q\270\316?\270\036\205\353Q\270\316?\\\217\302\365(\\\337?\\\217\302\365(\\\337?\\\217\302\365(\\\337?\\\217\302\365(\\\337?\\\217\302\365(\\\337?\\\217\302\365(\\\337?\\\217\302\365(\\\337?\\\217\302\365(\\\337?\\\217\302\365(\\\337?\\\217\302\365(\\\337?\\\217\302\365(\\\337?\\\217\302\365(\\\337?\270\036\205\353Q\270\316?\270\036\205\353Q\270\316?\\\217\302\365(\\\337?\270\036\205\353Q\270\316?\\\217\302\365(\\\337?\270\036\205\353Q\270\316?\\\217\302\365(\\\337?\\\217\302\365(\\\337?\\\217\302\365(\\\337?\\\217\302\365(\\\337?\270\036\205\353Q\270\316?\\\217\302\365(\\\337?\\\217\302\365(\\\337?\\\217\302\365(\\\337?\\\217\302\365(\\\337?\\\217\302\365(\\\337?\\\217\302\365(\\\337?\\\217\302\365(\\\337?\\\217\302\365(\\\337?\270\036\205\353Q\270\316?\\\217\302\365(\\\337?\270\036\205\353Q\270\316?\270\036\205\353Q\270\316?\\\217\302\365(\\\337?\\\217\302\365(\\\337?\\\217\302\365(\\\337?\\\217\302\365(\\\337?\217\302\365(\\\217\342?\303\365(\\\217\302\305?=\n\327\243p=\332?R\270\036\205\353Q\340?\217\302\365(\\\217\342?\n\327\243p=\n\307?\315\314\314\314\314\314\334?H\341z\024\256G\321?\244p=\n\327\243\340?\000\000\000\000\000\000\000\000\244p=\n\327\243\340?\244p=\n\327\243\300?\244p=\n\327\243\300?\270\036\205\353Q\270\336?=\n\327\243p=\332?\256G\341z\024\256\327?R\270\036\205\353Q\310?H\341z\024\256G\341?\232\231\231\231\231\231\341?\000\000\000\000\000\000\000\000R\270\036\205\353Q\330?\n\327\243p=\n\307?\000\000\000\000\000\000\340?\000\000\000\000\000\000\340?R\270\036\205\353Q\340?\000\000\000\000\000\000\340?=\n\327\243p=\332?\270\036\205\353Q\270\316?q=\n\327\243p\315?)\\\217\302\365(\314?\000\000\000\000\000\000\320?\000\000\000\000\000\000\000\000\000\000\000\000\000\000\000\000\217\302\365(\\\217\322?\217\302\365(\\\217\322?\244p=\n\327\243\320?q=\n\327\243p\315?\244p=\n\327\243\320?H\341z\024\256G\341?\354Q\270\036\205\353\301?)\\\217\302\365(\314?\341z\024\256G\341\312?\000\000\000\000\000\000\000\000\354Q\270\036\205\353\321?H\341z\024\256G\321?\270\036\205\353Q\270\276?ffffff\326?\315\314\314\314\314\314\334?)\\\217\302\365(\334?\315\314\314\314\314\314\334?)\\\217\302\365(\334?\315\314\314\314\314\314\334?\232\231\231\231\231\231\271?\232\231\231\231\231\231\251?{\024\256G\341z\204?333333\323?H\341z\024\256G\321?\366(\\\217\302\365\330?\000\000\000\000\000\000\320?\315\314\314\314\314\314\344?\341z\024\256G\341\342?\024\256G\341z\024\336?\303\365(\\\217\302\305?\366(\\\217\302\365\330?\341z\024\256G\341\342?\354Q\270\036\205\353\261?{\024\256G\341z\224?\354Q\270\036\205\353\261?\327\243p=\n\327\323?\270\036\205\353Q\270\256?q=\n\327\243p\335?\244p=\n\327\243\340?\354Q\270\036\205\353\301?\n\327\243p=\n\327?\315\314\314\314\314\314\334?\205\353Q\270\036\205\333?\315\314\314\314\314\314\334?\270\036\205\353Q\270\316?\341z\024\256G\341\312?\303\365(\\\217\302\325?\341z\024\256G\341\312?=\n\327\243p=\332?\366(\\\217\302\365\330?=\n\327\243p=\332?)\\\217\302\365(\274?\232\231\231\231\231\231\271?\315\314\314\314\314\314\334?\217\302\365(\\\217\342?q=\n\327\243p\315?\327\243p=\n\327\323?q=\n\327\243p\315?{\024\256G\341z\324?q=\n\327\243p\315?\n\327\243p=\n\307?q=\n\327\243p\315?{\024\256G\341z\244?\270\036\205\353Q\270\336?\000\000\000\000\000\000\000\000\270\036\205\353Q\270\316?R\270\036\205\353Q\340?{\024\256G\341z\324?\327\243p=\n\327\323?{\024\256G\341z\224?{\024\256G\341z\224?{\024\256G\341z\224?\354Q\270\036\205\353\321?\232\231\231\231\231\231\341?\205\353Q\270\036\205\333?{\024\256G\341z\224?{\024\256G\341z\224?\270\036\205\353Q\270\336?{\024\256G\341z\244?333333\303?{\024\256G\341z\264?R\270\036\205\353Q\310?\270\036\205\353Q\270\276?\024\256G\341z\024\336?\205\353Q\270\036\205\333?\303\365(\\\217\302\325?\000\000\000\000\000\000\000\000\n\327\243p=\n\327?\354Q\270\036\205\353\321?\n\327\243p=\n\307?\n\327\243p=\n\327?)\\\217\302\365(\274?{\024\256G\341z\244?\000\000\000\000\000\000\000\000{\024\256G\341z\244?\270\036\205\353Q\270\316?{\024\256G\341z\264?333333\323?\232\231\231\231\231\231\271?\303\365(\\\217\302\305?\n\327\243p=\n\267?{\024\256G\341z\224?{\024\256G\341z\224?\270\036\205\353Q\270\236?\037\205\353Q\270\036\345?\244p=\n\327\243\300?\270\036\205\353Q\270\236?\303\365(\\\217\302\325?\232\231\231\231\231\231\311?\232\231\231\231\231\231\271?\232\231\231\231\231\231\271?\000\000\000\000\000\000\000\000q=\n\327\243p\315?\000\000\000\000\000\000\000\000\217\302\365(\\\217\322?\270\036\205\353Q\270\316?\000\000\000\000\000\000\000\000\217\302\365(\\\217\342?H\341z\024\256G\341?\n\327\243p=\n\307?R\270\036\205\353Q\330?\232\231\231\231\231\231\331?\n\327\243p=\n\307?\n\327\243p=\n\307?\232\231\231\231\231\231\271?\232\231\231\231\231\231\271?\244p=\n\327\243\300?\232\231\231\231\231\231\271?\303\365(\\\217\302\345?\354Q\270\036\205\353\261?{\024\256G\341z\204?\000\000\000\000\000\000\000\000\000\000\000\000\000\000\000\000\341z\024\256G\341\312?\000\000\000\000\000\000\320?\244p=\n\327\243\320?\000\000\000\000\000\000\000\000\244p=\n\327\243\320?)\\\217\302\365(\274?\232\231\231\231\231\231\271?\n\327\243p=\n\307?{\024\256G\341z\324?{\024\256G\341z\224?{\024\256G\341z\204?{\024\256G\341z\224?\244p=\n\327\243\320?H\341z\024\256G\321?\217\302\365(\\\217\322?333333\323?\000\000\000\000\000\000\000\000\n\327\243p=\n\307?\303\365(\\\217\302\305?333333\323?\270\036\205\353Q\270\236?\000\000\000\000\000\000\000\000\354Q\270\036\205\353\301?\232\231\231\231\231\231\251?\354Q\270\036\205\353\301?{\024\256G\341z\204?=\n\327\243p=\332?=\n\327\243p=\332?\270\036\205\353Q\270\316?\270\036\205\353Q\270\316?\303\365(\\\217\302\305?\205\353Q\270\036\205\333?\303\365(\\\217\302\305?{\024\256G\341z\224?\000\000\000\000\000\000\000\000H\341z\024\256G\341?333333\323?\327\243p=\n\327\323?)\\\217\302\365(\334?\303\365(\\\217\302\325?\303\365(\\\217\302\325?{\024\256G\341z\264?\n\327\243p=\n\267?\000\000\000\000\000\000\000\000{\024\256G\341z\264?)\\\217\302\365(\314?\232\231\231\231\231\231\331?\366(\\\217\302\365\330?\232\231\231\231\231\231\331?\270\036\205\353Q\270\276?\327\243p=\n\327\323?\232\231\231\231\231\231\271?\232\231\231\231\231\231\341?\037\205\353Q\270\036\325?\270\036\205\353Q\270\316?H\341z\024\256G\341?\037\205\353Q\270\036\325?R\270\036\205\353Q\310?\341z\024\256G\341\332?\000\000\000\000\000\000\000\000333333\303?\000\000\000\000\000\000\000\000\000\000\000\000\000\000\000\000\244p=\n\327\243\300?\244p=\n\327\243\300?\354Q\270\036\205\353\321?\354Q\270\036\205\353\301?\303\365(\\\217\302\325?\354Q\270\036\205\353\301?\n\327\243p=\n\267?{\024\256G\341z\264?\354Q\270\036\205\353\261?{\024\256G\341z\264?\341z\024\256G\341\332?)\\\217\302\365(\334?\244p=\n\327\243\320?\232\231\231\231\231\231\271?\354Q\270\036\205\353\321?\354Q\270\036\205\353\321?ffffff\326?{\024\256G\341z\244?\024\256G\341z\024\336?\000\000\000\000\000\000\000\000\315\314\314\314\314\314\334?ffffff\326?q=\n\327\243p\335?\341z\024\256G\341\312?\341z\024\256G\341\312?{\024\256G\341z\304?\341z\024\256G\341\312?\341z\024\256G\341\312?)\\\217\302\365(\334?)\\\217\302\365(\334?{\024\256G\341z\324?\366(\\\217\302\365\330?\366(\\\217\302\365\330?{\024\256G\341z\224?\366(\\\217\302\365\330?\303\365(\\\217\302\325?\024\256G\341z\024\336?)\\\217\302\365(\314?\270\036\205\353Q\270\256?\037\205\353Q\270\036\345?{\024\256G\341z\324?\270\036\205\353Q\270\256?\270\036\205\353Q\270\256?\354Q\270\036\205\353\261?)\\\217\302\365(\314?q=\n\327\243p\315?)\\\217\302\365(\314?\270\036\205\353Q\270\236?{\024\256G\341z\204?\270\036\205\353Q\270\236?\270\036\205\353Q\270\316?\256G\341z\024\256\327?q=\n\327\243p\335?\232\231\231\231\231\231\331?\000\000\000\000\000\000\000\000{\024\256G\341z\204?R\270\036\205\353Q\310?{\024\256G\341z\244?\n\327\243p=\n\307?\000\000\000\000\000\000\000\000\217\302\365(\\\217\322?{\024\256G\341z\244?R\270\036\205\353Q\310?\354Q\270\036\205\353\301?\270\036\205\353Q\270\276?R\270\036\205\353Q\330?\000\000\000\000\000\000\000\000\303\365(\\\217\302\325?\270\036\205\353Q\270\316?\270\036\205\353Q\270\236?q=\n\327\243p\315?\270\036\205\353Q\270\236?\270\036\205\353Q\270\236?{\024\256G\341z\204?\366(\\\217\302\365\330?{\024\256G\341z\204?\366(\\\217\302\365\330?{\024\256G\341z\224?\n\327\243p=\n\327?\232\231\231\231\231\231\271?\232\231\231\231\231\231\271?\270\036\205\353Q\270\256?\270\036\205\353Q\270\256?\232\231\231\231\231\231\311?H\341z\024\256G\321?\000\000\000\000\000\000\000\000\244p=\n\327\243\300?\366(\\\217\302\365\330?\270\036\205\353Q\270\336?q=\n\327\243p\335?)\\\217\302\365(\334?q=\n\327\243p\335?\366(\\\217\302\365\330?\232\231\231\231\231\231\331?R\270\036\205\353Q\310?\327\243p=\n\327\323?{\024\256G\341z\324?\270\036\205\353Q\270\276?\256G\341z\024\256\327?{\024\256G\341z\324?\270\036\205\353Q\270\276?\327\243p=\n\327\323?H\341z\024\256G\321?\n\327\243p=\n\327?\037\205\353Q\270\036\325?R\270\036\205\353Q\310?H\341z\024\256G\321?R\270\036\205\353Q\330?{\024\256G\341z\204?{\024\256G\341z\204?\217\302\365(\\\217\322?{\024\256G\341z\204?{\024\256G\341z\204?R\270\036\205\353Q\330?R\270\036\205\353Q\330?\000\000\000\000\000\000\340?R\270\036\205\353Q\330?\303\365(\\\217\302\305?\244p=\n\327\243\340?\\\217\302\365(\\\337?\232\231\231\231\231\231\331?\303\365(\\\217\302\325?\\\217\302\365(\\\337?\341z\024\256G\341\332?\217\302\365(\\\217\342?\270\036\205\353Q\270\336?\315\314\314\314\314\314\334?\315\314\314\314\314\314\334?\315\314\314\314\314\314\334?\270\036\205\353Q\270\336?\232\231\231\231\231\231\331?\270\036\205\353Q\270\336?\232\231\231\231\231\231\331?\244p=\n\327\243\340?\244p=\n\327\243\340?\244p=\n\327\243\340?\270\036\205\353Q\270\276?\232\231\231\231\231\231\251?H\341z\024\256G\321?\354Q\270\036\205\353\301?{\024\256G\341z\224?\366(\\\217\302\365\330?H\341z\024\256G\321?\232\231\231\231\231\231\331?=\n\327\243p=\332?\232\231\231\231\231\231\311?\205\353Q\270\036\205\333?\n\327\243p=\n\267?\270\036\205\353Q\270\336?\270\036\205\353Q\270\336?\000\000\000\000\000\000\340?)\\\217\302\365(\334?=\n\327\243p=\332?333333\323?333333\323?\217\302\365(\\\217\322?{\024\256G\341z\324?\\\217\302\365(\\\337?333333\323?\244p=\n\327\243\320?{\024\256G\341z\324?333333\323?\\\217\302\365(\\\337?\000\000\000\000\000\000\000\000\366(\\\217\302\365\330?333333\323?\270\036\205\353Q\270\276?\232\231\231\231\231\231\331?\270\036\205\353Q\270\276?\354Q\270\036\205\353\321?\232\231\231\231\231\231\271?\354Q\270\036\205\353\321?\315\314\314\314\314\314\334?\270\036\205\353Q\270\256?\000\000\000\000\000\000\000\000\000\000\000\000\000\000\000\000\303\365(\\\217\302\325?\000\000\000\000\000\000\000\000333333\323?R\270\036\205\353Q\330?\037\205\353Q\270\036\325?{\024\256G\341z\324?\217\302\365(\\\217\322?{\024\256G\341z\324?\037\205\353Q\270\036\325?\303\365(\\\217\302\325?\232\231\231\231\231\231\331?\n\327\243p=\n\327?\315\314\314\314\314\314\334?\327\243p=\n\327\323?333333\303?\000\000\000\000\000\000\000\000{\024\256G\341z\304?q=\n\327\243p\335?\232\231\231\231\231\231\331?\256G\341z\024\256\327?\256G\341z\024\256\327?\354Q\270\036\205\353\301?\037\205\353Q\270\036\345?\037\205\353Q\270\036\345?\n\327\243p=\n\267?\341z\024\256G\341\332?{\024\256G\341z\204?\000\000\000\000\000\000\000\000{\024\256G\341z\324?\000\000\000\000\000\000\000\000\341z\024\256G\341\312?{\024\256G\341z\204?\000\000\000\000\000\000\000\000{\024\256G\341z\204?\000\000\000\000\000\000\000\000{\024\256G\341z\264?\n\327\243p=\n\307?\303\365(\\\217\302\325?\303\365(\\\217\302\325?\232\231\231\231\231\231\271?=\n\327\243p=\332?\341z\024\256G\341\312?\000\000\000\000\000\000\000\000R\270\036\205\353Q\310?\341z\024\256G\341\312?=\n\327\243p=\332?\037\205\353Q\270\036\325?\000\000\000\000\000\000\000\000\000\000\000\000\000\000\000\000\303\365(\\\217\302\305?\n\327\243p=\n\327?\n\327\243p=\n\327?\303\365(\\\217\302\305?\341z\024\256G\341\342?\232\231\231\231\231\231\251?\341z\024\256G\341\332?H\341z\024\256G\321?H\341z\024\256G\321?\366(\\\217\302\365\340?\000\000\000\000\000\000\320?=\n\327\243p=\342?\366(\\\217\302\365\340?=\n\327\243p=\342?\000\000\000\000\000\000\340?)\\\217\302\365(\334?\315\314\314\314\31